/**
  ******************************************************************************
  * @file    network_data_params.c
  * @author  AST Embedded Analytics Research Platform
  * @date    2026-05-07T16:31:02+0800
  * @brief   AI Tool Automatic Code Generator for Embedded NN computing
  ******************************************************************************
  * Copyright (c) 2026 STMicroelectronics.
  * All rights reserved.
  *
  * This software is licensed under terms that can be found in the LICENSE file
  * in the root directory of this software component.
  * If no LICENSE file comes with this software, it is provided AS-IS.
  ******************************************************************************
  */

#include "network_data_params.h"


/**  Activations Section  ****************************************************/
ai_handle g_network_activations_table[1 + 2] = {
  AI_HANDLE_PTR(AI_MAGIC_MARKER),
  AI_HANDLE_PTR(NULL),
  AI_HANDLE_PTR(AI_MAGIC_MARKER),
};




/**  Weights Section  ********************************************************/
AI_ALIGNED(32)
const ai_u64 s_network_weights_array_u64[8680] = {
  0x3ed58db6bdb4b0e6U, 0xbe23974a3edc11aeU, 0x3e5a8d4d3e81e97eU, 0xbdc340e53e888ef5U,
  0x3ec3cfa5bceca692U, 0x3d81ffab3e8bc0baU, 0x3eaba6c5be68d308U, 0x3f29dbe73dcb362aU,
  0x3f05b9863f20d3adU, 0xbe0ef1f33e90fd45U, 0x3e7c4cf53ebd0751U, 0x3f40b0313ee09e01U,
  0x3da5234a3ee81f0cU, 0x3ea62c5bbe00e665U, 0x3ca1a5f83e7cfc9bU, 0x3e5d21d93e98e39dU,
  0x3e0f35e03d36e63cU, 0xbdc4f3753ebc6262U, 0xbddca84ebf0840a0U, 0x3e05569d3f03bb8aU,
  0xbf2e4a923f5427a7U, 0x3dd90d923eaa45fcU, 0xbeee75e23f614ea7U, 0x3c83d9d83d5ee85cU,
  0xbe5a3af23e94cfd5U, 0x3c1ebababe438f5dU, 0xbe88b2dc3ddc001fU, 0xbdd3d3d33d23eca3U,
  0x3cad0e04bd00cdb8U, 0xbe9a3fb93e493a37U, 0xbd1f6510bf3cdf54U, 0x3e77ebe93f017048U,
  0xbdfb5d353d072462U, 0x3f23328dbea6c94cU, 0xbd33300cbac7f57bU, 0xbdd6911c3dd94278U,
  0x3e4abbe3be6c7fe8U, 0x3f7d2119bee5c0c9U, 0xbc80f4d43e76649eU, 0x3ef1cc43bed5bb68U,
  0xbe92cca8bfbe1537U, 0xbf903694bea31016U, 0xbec41e9ebf6c9072U, 0xbf22fbf5bdb02f58U,
  0xbf3ca27abf219650U, 0xbd309bee3ea57712U, 0xbe1a1a1ebea0c56bU, 0xbde38337beaf464aU,
  0xbef7fc28bf85b8feU, 0xbe098ca3bea63c92U, 0xbd96e1d3bf59dcc0U, 0x3eea27eb3f492afcU,
  0xbcdccc1ebf270d15U, 0xbdd430053ed8da41U, 0x3d2bfa2cbecd5533U, 0x3d97e5e83e92d2f9U,
  0x3d4f9c31be230b72U, 0xbda0e8403ec8b84bU, 0xbca727f2bf50bf70U, 0x3da66f743ee31eabU,
  0x3fd14e49bfabf591U, 0xbe90a4cdbe7d6b44U, 0x3f87b7a7bf81e11dU, 0xbcd891b33d15367dU,
  0xbd7dc087be48c1e2U, 0x3e8c0acbbd12fa34U, 0x3d440bc3bde9af6aU, 0x3d84e73f3cd8aa74U,
  0x3db4f111bdc06a3fU, 0xbaa6c1573b5749e5U, 0x3f96f9843de551cdU, 0xbf27593d3e8ae130U,
  0xbdbda0923ef749f2U, 0xbf2f07153dcccb03U, 0xbd4bb554be0bc502U, 0xbea190b53ea0c2b9U,
  0x3ee94563be37ea14U, 0xbf471caebe4fb70eU, 0x3f24cc1cbf14878cU, 0xbe6149e03d8b289dU,
  0xbe17aa6bbeee5e59U, 0x3f19f04bbe98bec0U, 0x3e1cced93e8da79fU, 0xbdb64b6ebe224351U,
  0x3f0c9e833f0ef7bdU, 0xbe25b213bdb27606U, 0xbdb0a02bbdd8ee84U, 0x3e072c123e8dab13U,
  0xbe7ac52abdde663cU, 0x3c33af6ebe0a6319U, 0xbf08b3d23d9ffcc6U, 0xbef2ed023d1871caU,
  0xbea4a6253e96646aU, 0xbcc586f6bedb7010U, 0xbeab18563ed8b29cU, 0x3dfbd4a6be114f29U,
  0xbd1641ca3eb1a679U, 0x3d770d47be8e81efU, 0x3e3d87a33edcb1b8U, 0xbe281072bdc5f3d4U,
  0x3f13dabcbd59b9beU, 0x3e12f6b23e60323dU, 0x3e8c1f743e1a0c04U, 0x3e3ec1763f00f200U,
  0x3e7cd801be92ce15U, 0x3e5f3bf3be51eb31U, 0xbe674293bec4e2bdU, 0x3dcfa126bed2a5b6U,
  0xbe9f7526bf017773U, 0xbdb4ced5bed38122U, 0x3ea0ea333e83b6f6U, 0xbdfcdba8be4b5bf9U,
  0x3d8718943ee474f0U, 0xbda076e13d7ff5cfU, 0x3d8252ca3d1e6084U, 0x3e9a8c9c3ee7a2fbU,
  0x3d996145bd9ebc8dU, 0xbe1303e4be621315U, 0xbf020a3dbf3000baU, 0xbe07920fbebd1eb8U,
  0xbf8939b03f71bc93U, 0xbe89be5c3e3b7c5fU, 0xbea151b73f249c93U, 0xbc24b814be5c5e90U,
  0xbc37d853bd64de82U, 0x3ec82b85beb23ac1U, 0x3c95df12bd2639fdU, 0xbe960d773e9a8ac6U,
  0x3e82f78fbd48094bU, 0xbe422a2c39d8b578U, 0xbf81f86dbeed9834U, 0xbee13f8ebd8bc478U,
  0x3ec09cdbbeb8d497U, 0xbf27c31dbf19353aU, 0x3e2531d2bf023abeU, 0xbe5b25f1bcb703f9U,
  0x3f0fb407beb8ac5aU, 0xbed75ef4be40b25bU, 0x3f09c61b3ec4197aU, 0xbe533eb3be56b743U,
  0xbe92e6613ea760f4U, 0x3f497b1a3e665f5eU, 0x3ddeb8ba3c9bf1d9U, 0x3df2cb47be2db854U,
  0x3f8f71473f466a5aU, 0xbe2e03573e33704eU, 0xbf4e5cb8bf7973dcU, 0x3ca45612beb53d2aU,
  0x3c923d1dbe0aa41aU, 0x3bcfdf36bd82bdcdU, 0xbf9ab9bf3f8ab972U, 0x3f97418ebe377bc1U,
  0xbe29733ebd28b9b8U, 0x3da29cc5b811cd15U, 0xbf26784c3f8ecba3U, 0x3ee3023dbbea00f7U,
  0x3dd6fe7cbef7cf9dU, 0xbde9992fbdd52a7bU, 0x3d975d78bdea4d19U, 0xbeb51ad43c4f2ccbU,
  0x3f7eed0fbf041e67U, 0x3e31d3debf0ac0b3U, 0x3d6287393f251f57U, 0x3f0be2d33c9934beU,
  0x3dfe5e873f56bbe9U, 0x3e9102adbd502002U, 0x3e3b02b03e15c7d4U, 0x3ceb881ebe88a86bU,
  0xbe9633cbbe773db0U, 0xbf17fb7abd9b02a1U, 0x3f26e0ecbf213a3cU, 0xbf18bf3fbc3e7553U,
  0xbf20b318be883c5dU, 0xbebfb82ebf582e07U, 0xbf0ee164bf1256afU, 0xbf250702be4ddd24U,
  0xbf4637d0bee5e66cU, 0xbf3144a1bf3b41d5U, 0xbe83224bbf380f05U, 0x3e31bf5e3e5a805fU,
  0x3f9d6de63ed672d8U, 0xbd0ca8f83ec48245U, 0xbf3aaec4bdcf7866U, 0xbf9919bcc02d993dU,
  0xbddf91d7bf534554U, 0x3f9423073e7f7b0aU, 0xbe6f7e353d90e720U, 0xbe09ed08be82a1b4U,
  0x3f569bed3f8fd2faU, 0x3e5ada133ebbc675U, 0x3f242a65bd10bb5cU, 0x3deee32dbdb7be2bU,
  0x3eb328533e76d467U, 0xbe94b3d7bedd8687U, 0xbe30accfbe9ee17fU, 0x3ee65689bf05d07dU,
  0xbd8b6e13bdd423fbU, 0x3ecc82a93e4b3d34U, 0xbe53104dbf5d2868U, 0xbf030979beffec5dU,
  0xbf17163cbda9f29cU, 0x3f095c783e6163c7U, 0xbe753f5f3eba14a1U, 0xbf3d8d5ebf69a57fU,
  0x3eb4dc3abe7bbc87U, 0x3fe1784d3db27cbbU, 0x3ecf1d7e3f9a55ddU, 0x3e0db9053e161c2dU,
  0x0U, 0x0U, 0x0U, 0x0U,
  0x0U, 0x0U, 0x0U, 0x0U,
  0x3eddfda0bd80dd40U, 0xbd9ed8413ee456dcU, 0x3ef6ffffbfd14d3aU, 0x3f07187f3d4e451dU,
  0x3e52efcd3ee57374U, 0xbebd94abbd9c5e62U, 0xbdce4c553db270c2U, 0xbe263214be628b82U,
  0x3e94a689bed5d5a0U, 0x3e89c645be682d4eU, 0x3ee31a3b3e6998acU, 0x3e3a8fc63e4f82a1U,
  0x3db24f8c3ed79158U, 0xbf27e8523e168d1aU, 0x3e5699c3be0c980cU, 0xbd8fc0f53eb1e009U,
  0x3f585edf3e408ecaU, 0x3e682898bdcaec76U, 0x3dc84cf63e0cd575U, 0x3d2579b6bd8b1feeU,
  0xbe5a7a933cb37840U, 0xbf94ecdb3f9ff353U, 0x3dca04463e7a2c5aU, 0xbdab84023e10e049U,
  0x3e00f2f4beb30a72U, 0x3bdab2eebdc212adU, 0x3e95bbcdbf0a4432U, 0x3f2a45ee3ec0fb79U,
  0x3e4472e43ee8a19cU, 0xbec30ae73f644857U, 0x3eacdd2bbe0c02fbU, 0x3d167847bdc390dbU,
  0x3d250fa6beeac2d1U, 0xbdc6cb0d3c608e71U, 0xbee1bf0d3e795994U, 0x3d3917363de9855cU,
  0xbf0b7b39beee717aU, 0xbf31f4c83f1cc304U, 0x3f1c68b93f65b814U, 0x3d5d52c9bc636314U,
  0xbee2314e3ebffb0bU, 0x3eed0cd33f489eb4U, 0xbf9b0bba3e50affeU, 0xbe8dfd803da847e0U,
  0x3dd2e2b8be24c976U, 0x3c56f0e4bf2bee0eU, 0x3ed1e1883edbc59fU, 0xbf3c464ebf839124U,
  0xbf36eeff3f2f36f6U, 0xbc8bf7d63ee8a5a1U, 0xbfa3a8f53f1b6bb1U, 0xbf81d1b03fe9e125U,
  0xbedc1aa9be11e0f2U, 0xbdecf906be6bf6f9U, 0x3f347eb33fabccf1U, 0xbfa8d7eabfcbb271U,
  0xbd6bd8d93f98ebf9U, 0xbec04569bf12d330U, 0xbf3e6ac73f6caec8U, 0xbeace1333d84fde7U,
  0x3e0b90a7bfcf81a5U, 0xbe451c18bf043c4fU, 0x3dfd22623f9d5a7dU, 0xbea506793f1ff4c6U,
  0xbe5f33273f8cfbddU, 0xbeef6105bea0b65fU, 0xbeefaafb3f8ff855U, 0xbf2fae2d3d9dc650U,
  0x3f18fa5fbfd7e581U, 0xbf4985083e51f812U, 0x3e9cacae3f4266c9U, 0xbeefadf53f9db4beU,
  0xbf3cde493efe8ccfU, 0x401b8cca3f9c3796U, 0xbf923b663f8a9f76U, 0xbf416d60402f31b2U,
  0xbebc5aa03f42b378U, 0x3f10c1e2be8f61ceU, 0x3f0e2fd33f6fb1e3U, 0xbf8afe14bf1a2fd3U,
  0xbe9db8bcbe63ad16U, 0xbe01c1e13e716be0U, 0x3ed322c93e07cb62U, 0x3f0717793de5d5eaU,
  0xbd5c9c683ed8e283U, 0x3e42c7263eddad04U, 0xbe8c7d5dbe280791U, 0xbdd1b3663e548cc1U,
  0xbf24edd23f33fe51U, 0x3e7de03f3ef59f0dU, 0xbf5c4b643f744fdcU, 0xbf9700743e8b0771U,
  0xbf13abd9bd467a25U, 0xbe8ac3e1be59f52fU, 0xbe2e26bbbdf3f93cU, 0xbf1108cf3de69728U,
  0xbf20d3f83f30988bU, 0xbe13a70ebe450ca5U, 0xbf82b6343dffad21U, 0x3f725c50be5f42ccU,
  0x3e1fb40bbe608bb2U, 0x3f845f9fbe555935U, 0xbf21ede6bed129ecU, 0xbebaf383bd6bbc30U,
  0xbdcc022c3e62dd65U, 0xbd5c5278bd5ba51aU, 0x3f41f32bbf5b8ee2U, 0x3f0747933d498994U,
  0xbd06126c3f042538U, 0xbf2a73fd3f2e8fa5U, 0x3dff9fbdbeb2a211U, 0xbee27bb0bea7ca83U,
  0xbdf91ed53e95230fU, 0x3e9266be3fcfa819U, 0xbb83e1ac3e2525dbU, 0xbf2b66413ee0a276U,
  0x3d3aecfc3f019d39U, 0x3e6bc9bdbeb5a2eaU, 0x3e2e690f3ed56aa1U, 0xbf10320b3e8b6f99U,
  0xbdd4eb59be1e0112U, 0x3f9a84ad3ec2f6d7U, 0xbe0a09aa3e4648b3U, 0xbe10eaf83c7fe883U,
  0xbf1f0aa1bf4ae2f0U, 0xbf241816becc65b4U, 0x3f64b7963e86b64cU, 0xbfefb76dbe45db8bU,
  0x3f1c29a83d82fbf3U, 0x3e4982ea3f246e83U, 0xbbde43b1bdc422dcU, 0xbead4ad9bd7d74e1U,
  0xbd2f00333cec578dU, 0xbf0190f7be8d0b21U, 0x3ea8c1e33f211b91U, 0xbf43d4e93eda193bU,
  0x3e80ec8cbe47ab0eU, 0x3d3e2451bd82cc66U, 0xbe9f42e43e5becfeU, 0x3f0bd8b23eaca4c1U,
  0xbe786f5e3e97f924U, 0xbe9cea243f7c52acU, 0xbe72ba7e3cfa372bU, 0xbe5cb1473e3ab03eU,
  0x3efacc7c3da8d6e2U, 0x3f0575eabe5267b2U, 0x3e81ac3abeb13e3bU, 0xbf40cf2cbc86d95dU,
  0xbdab49a9bf1fb55bU, 0xbf39a8ad3ec2b205U, 0x3ea1053cbe2818c6U, 0xbe00daa93ee6b54dU,
  0xbebfb7183ee8f9e9U, 0xbeb4c2213f337116U, 0xbf9d53a13f5db77bU, 0xbf94c3ad3f3e6d85U,
  0xbf7fb456bf0785dfU, 0xbebe7b9cbf1aacd9U, 0xbd6063f23f295072U, 0xbf69b5e5bf6cb3e1U,
  0xbe4e707e3e234f4eU, 0xbe079d563dda4246U, 0x3f07b1c3bde0a35dU, 0x3df52a3dbdbd4e9aU,
  0x3ec1dea73ef6cea8U, 0x3e74c020beb56655U, 0xbef4aa5fbdbd83bcU, 0x3e1730ed3d61b9adU,
  0xbf11a9223e5779abU, 0x3ed533d94008e0ccU, 0xbf2912ab3f812182U, 0xbf9aa5e93ff0c9adU,
  0xbe4721143f49200aU, 0x3e9af5f33db777d1U, 0x3f877d263f934fb1U, 0xbfaee4a0bec617e3U,
  0xbe08369e3ddc5c31U, 0x3f7d7abb3e54aa3fU, 0xbf0dae273ee94e95U, 0xbe7133883cd65148U,
  0x3f0065443e4ab675U, 0xbed4e37c3f2d2ac5U, 0x3e8d5b08be571038U, 0x3d31fe6d3e59615dU,
  0xbd0e1d643e90a6a2U, 0x3e09bcefbd2d3657U, 0xbd61a14d3f8105aeU, 0xbf43cb563d85c255U,
  0xbf6714b03d4afb91U, 0x3dfed85b3f277e5eU, 0x3e01bade3d00ef50U, 0x3da97d533d7ff582U,
  0x3e9ec1603f2f7a23U, 0xbddc3ebbbe969964U, 0x3e9b3297bdf37e47U, 0xbdf8e1cd3e280f82U,
  0x3f304e19bf29d647U, 0x3f0f11623e77d151U, 0x3e1e451dbe1fde1fU, 0xbed76f713f321fbbU,
  0x3e9380c43e584528U, 0x3e349fe5beaf7460U, 0x3f3c0e933ea5c6ecU, 0x3d4413f4be6ea59eU,
  0x3e4c2ddebe7a9cafU, 0x3e8420d3bf37ba72U, 0xbece7518bcc475b7U, 0xbeb537303e22187eU,
  0xbda08edc3e77f9b8U, 0xbec823cf3d9deeebU, 0xbe8d2a9dbf0114b5U, 0x3f0dd438bebc12b8U,
  0x3f8677293e4ccb9dU, 0xbf9402c4bfb7f377U, 0xbfed1a29bfb16097U, 0xbf33c91dbfaba35aU,
  0x400e41e63fffc9f7U, 0xbfb457043fa02a57U, 0xbfcaf2f1bfa04a07U, 0xbe6f8827bead655fU,
  0xbf9643b7bdee3e00U, 0xbf92727bbf6a4014U, 0x3e43c9f73f0c199bU, 0x3ecb3b0fbefcaf1fU,
  0x3f82c519bd0c0849U, 0xbeca7297bf53408bU, 0x3fba6a1ebf8b7020U, 0x3f97891e3fa81aa5U,
  0x3ddbb0c6bc90479bU, 0xbdc5d05d3e71f1caU, 0xbeb23a8cbe621671U, 0x3e9b6743be942d54U,
  0xbfc25c4a3c10530eU, 0xbfc7a7d6bf9684edU, 0x3e293f1e3e9a2610U, 0xbfd0e3fa3e1bee00U,
  0xbf88ed81bfa07a17U, 0x3ef25de4bd431fc2U, 0x3e6f83d33e8cbc74U, 0x3eb1036e3f565bb8U,
  0x0U, 0x0U, 0x0U, 0x0U,
  0x0U, 0x0U, 0x0U, 0x0U,
  0x0U, 0x0U, 0x0U, 0x0U,
  0xbb006c323f016d43U, 0x3dec79023df4be98U, 0xbf1253863edc334aU, 0x3f55f8663ef97f3cU,
  0xbe2d4037bf3b017bU, 0xbe5f0c1cbe4546d6U, 0x3d78d4c7be0f610bU, 0xbea171d2bf18eec0U,
  0xbe88f579bee11128U, 0x3fb039383e9fd444U, 0xbf7e712cbcc1e7f7U, 0xbd8f3bc3bf0e82c2U,
  0xbeb9d9283e01660bU, 0x3e0c2e03be8efcffU, 0xbdff00f9bd66bbb0U, 0x3e553e6cbecc052cU,
  0x3f0e4e2cbe72dd71U, 0xbe41923f3ec5c160U, 0xbd013dfd3ebc2af0U, 0x3e9082b5bdae413bU,
  0x3e108effbe0df901U, 0xbe03d7353efafd93U, 0x3caed1f23de1f665U, 0xbf0cf40b3d4e40f7U,
  0xbe456531bdbf4aadU, 0xbe0164ae3ef040edU, 0x3ea8c800bdd37463U, 0x3f7437553e8dfab8U,
  0xbd7150adbf8b16f0U, 0xbebef6643e013341U, 0xbd5fdc613e905b46U, 0x3e35bb05bea34949U,
  0xbe87f4023e66fc51U, 0x3f89d64f3e851549U, 0xbf286af4be9dcfe6U, 0x3ec0362fbd849829U,
  0x3f83f28f3d34fc26U, 0xbdc865833f2e07abU, 0xbea48759beb6182dU, 0xbf821b753d445b76U,
  0x3f3c76673f195165U, 0xbd8606b23daf7ed8U, 0xbf4408503e4d647fU, 0x3de846cf3e9dd85dU,
  0xbe0a54a5be15eeaaU, 0xbeab2d283f0d8d32U, 0x3e4abb47be097a4bU, 0x3cc0fa48bf6a3d16U,
  0xbe865ee23f8d00e5U, 0x3ed4e9cabe488547U, 0xbf1b5e0a3f1183cbU, 0x3f48df913f2b88d5U,
  0xbe9e006ebe0c48ccU, 0xbf93fe043d4fb8b2U, 0xbfc43c18bc12720eU, 0xbfca0add3f50a8b1U,
  0xbf3bf779becdb062U, 0xbed505743d4a2b55U, 0xbd8a7644bed46ccbU, 0x3ef2203a3f3d5430U,
  0x3ef069a83ea11d80U, 0x3f3fec09be91b8b4U, 0x3e8d728d3ea1daa8U, 0x3e0f9ff7bef3f5d0U,
  0x3e80e621bd0431c8U, 0x3f0779513e8a18c7U, 0xbe899fc93d97360fU, 0xbf22de8c3e92a940U,
  0x3f20cc7f3e0edd7eU, 0x3f194aa0bf26bd9aU, 0x3e0d69f83e2e291dU, 0xbf1de764bd7e29a6U,
  0x3f9d85293fd0064cU, 0x3fba447c3ef49a2cU, 0x3f381fe33f06cb8bU, 0xbebe61afbf6cf455U,
  0xbf614237bf52db40U, 0x3e8696d83f84ac13U, 0xbff25f62bfc350baU, 0x3e816348be65aaf0U,
  0x3f5f3abdbefa42eeU, 0xbebba6e8be8e14bcU, 0xbf4fe51dbe703c84U, 0xbf06e881be2c6f33U,
  0x3e24590f3e380b9dU, 0xbbae21d9be71575cU, 0x3bddf0e53e24bc99U, 0x3d46c2ee3cfba34eU,
  0x3eb75fe5bc9b3a69U, 0x3e0f022e3e8be19eU, 0x3c7d3997bda66e8aU, 0xbdedd9183dc812a9U,
  0xbde053fdbe4a2d97U, 0xbda4203c3e446c4fU, 0xbd8e749cbe65c381U, 0xbdf4029ebd9fea8dU,
  0x3da49ebc3e6f834eU, 0x3d15ab41bd2e69eaU, 0x3e9e1aa6bc5eaba9U, 0x3eb8cfd93db4c996U,
  0x3eac55edbe59fc2cU, 0x3dfdcc333d42044eU, 0xbdfb2b693e885656U, 0xbe167517becdcf3aU,
  0xbe2eecd5bea14c74U, 0x3e36985ebe72692eU, 0xbf13c0cb3d05a4a2U, 0xbec506d2be8bdd19U,
  0x3eee9415bda0ddabU, 0x3ed5d8b83c906994U, 0x3ce5be1ebf10aa8bU, 0xbf0a04cebed4b50aU,
  0x3f10db78bf2fac46U, 0x3ea500ca3ea6efecU, 0x3c2222d13daa49c5U, 0x3e834e573dfd3984U,
  0x3f04f08f3e918784U, 0xbec2c4373d8d18f4U, 0x3f049662bd2f7bdaU, 0xbd9c6ec1bf0cbaf4U,
  0xbe117ac03e7801fcU, 0xbbfd7144beb5d785U, 0xbb81571abda362e9U, 0x3f2e74603f8c0e86U,
  0xbd70fd3bbf2fd2fcU, 0xbece5a323e17d335U, 0x3d82cde0bec11daeU, 0xbf531c66bf15b891U,
  0x3d10d63d3f167616U, 0x3f7f9adbbef8d484U, 0xbf4eda9ebdc779efU, 0xbf052b623db5d883U,
  0xbd8f99b23e3c2554U, 0xbda7fa813ed9d7b2U, 0xbea6db953d514953U, 0x3f393662be96a047U,
  0x3e452067bf7e4921U, 0x3e7acad9be1a2a9eU, 0xbd01c5fbbe8af806U, 0x3e5abbe8bea81e09U,
  0xbd18720b3ea1ff30U, 0x3ec360f93db4f318U, 0xbf25c8963c840951U, 0x3df8828bbd5af294U,
  0x3f9d9c114009561bU, 0x402d92263e10ba1eU, 0x3f0329a73f68634aU, 0x3f2c35f8bf4e81d8U,
  0xbf91413dbf994b9aU, 0xbe4786cc3f31ec94U, 0xc03b6dc4c0299ae0U, 0xc00b76fdbec699afU,
  0x3f67ecc3bf82aaa6U, 0xbea00c83be202831U, 0xbf5bb303bf9e8487U, 0xbf6388f7bfb9b3b3U,
  0x3e5c36eabd230071U, 0xbd71764abd154d9aU, 0x3eb598b43ed10c0eU, 0xbed88d6abd1d989aU,
  0x3dd4b16bbf1065d1U, 0x3e35fcb43ca53775U, 0x3e488bf7bdd77cf4U, 0x3dcc53ddbe30952eU,
  0x3e744a4abe1fd86dU, 0x3e8720edbe09ed34U, 0xbe6d108d3cf4a74bU, 0x3e5e46b23e54ba0bU,
  0x3e83b3db3e9cb8bcU, 0x3e14d938bea533e0U, 0x3e1666e63eeec1c3U, 0x3f7bd8193ece7c01U,
  0xbe4a8552bf3d71c9U, 0x3e4c269a3e2888a5U, 0xbdbc68c1bcf5baf0U, 0xbf0e4323bf938b12U,
  0x3ee9eb3dbeb9b9c0U, 0x3f504f723e1b9b70U, 0xbf81f6c2be89f06cU, 0xbf8d680cbf07433aU,
  0x3f084b0e4024beb1U, 0x3f94fc963d934d36U, 0x3eb339c83f025122U, 0x3f785a6dbf787183U,
  0xbf793cf2bfa8ccf0U, 0x3e2a3af33f5a6f07U, 0xc05d8698bfbd9d4eU, 0xbfd99b07bf175945U,
  0x3f8baa78bf848042U, 0xbe74cc50be9252f7U, 0xbf2f9586bfb1aee2U, 0xbed8a07b3e30d918U,
  0x3f84bfa240205ed5U, 0x4028a7003e6b281eU, 0x3f279be23f4bd9c0U, 0x3dc78640bf8d2175U,
  0xbfae7bfcbfffd590U, 0xbf0a6a943fa6e76dU, 0xc08a8920c01a4ffdU, 0xbf99149c3da5045bU,
  0x3f5877ebbf75ee90U, 0xbf56abccbe037dd3U, 0xbf52e799bfad59f9U, 0xbf0648e6bf9c32a2U,
  0x3f714fdd40342d05U, 0x3fd690a83ef29045U, 0x3f26626d3f1315c8U, 0x3f853691bfb285c8U,
  0xbfa27f3ac0016abcU, 0xbee5e3293f54c514U, 0xc055a8aebfd9ef79U, 0xbfa2ed7bbe5ca614U,
  0x3f51659bbec2abc4U, 0xbf4792d6bf6f711cU, 0xbf7cababbf8f5522U, 0xbe1f6709be31bc7aU,
  0x3e10df933db498adU, 0x3c9ad6cd3e7501c1U, 0xbe923addbe4ae3b2U, 0x3f92626e3f1ed39fU,
  0xbef48040bf1e5db1U, 0xba1ff24dbdbd2bbeU, 0xbe15fef5be9a56a2U, 0x3e3f244cbf4064c5U,
  0xbe3cc6aa3e98bb4bU, 0x3f88165cbe393ff6U, 0xbf13007fbe53dc9fU, 0x3e57ee68be00159eU,
  0x3a37133e3ec5b382U, 0x3ec6bc20be2b026fU, 0xbdefa5573d3f23f6U, 0x3fe47d263d001e93U,
  0xbf0e7782c00f3cd9U, 0xbeeb22603de22980U, 0xbdcc6cd13a022f4aU, 0x3e2c8a02bf5c1ac9U,
  0x3b63f95bbe00dc1cU, 0x3fa849c93e8b7ce3U, 0xbf8d008fbe9140e4U, 0xbfbe86b4bf9604a9U,
  0x3d2197fd3e97302aU, 0x3d1a88e3be8fb722U, 0xbe6064a53d6161b6U, 0xbd466beb3e9bd11cU,
  0x3c9e8315be460e60U, 0x3e9a3a3b3d3759e7U, 0x3e149762be567ab5U, 0xbd80cc283d8957b8U,
  0x3d5f88aebed95383U, 0x3e392a15beb3c074U, 0x3da591afbe9c5eddU, 0xbe894c483e251724U,
  0x3f5facfc3f1bc23bU, 0x3f507714bf08bd0aU, 0x3ec0e0f73f181d09U, 0xc0358b9ebf6fbbb7U,
  0xbf5c4530403da05dU, 0xbf846acf3f91f695U, 0x3ef75a84bf523370U, 0x3f9c191cbe76c232U,
  0x3f167155be6c12b7U, 0xbf8b8e9d3dcf63d0U, 0xbf92948ebfa493baU, 0x3f17729b3c64e726U,
  0x3d39fa16be29022cU, 0xbd6162d3bd34b36bU, 0xbe0de8c4be99a75dU, 0x3ef583943e8517baU,
  0x3e0d4cb8be6d9c7cU, 0xbdf8bf84bd237f29U, 0xbe211d4bbb196e7eU, 0x3ec88f103e2e7e07U,
  0x3e2f0abc3e5c45e3U, 0xbd1b217bba87fbc2U, 0xbe84a7e2bd937b65U, 0xbe97a3f3be05b81eU,
  0x3ed7c952bd122242U, 0x3eca530cbe4ef4dfU, 0x3cf264103d82cbc7U, 0xbd3634ad3ecdebd3U,
  0x3b3086adbf382a94U, 0xbf5f914f3db70522U, 0xbc2c2da6bf3a5ec7U, 0xbdf69f31bde2a736U,
  0x3e29075e3e3f8161U, 0xbe6b127bbe25a163U, 0x3e222d90bdda9e5cU, 0x3ea10b2cbdcad502U,
  0x3ec3dc5abe22fc91U, 0xbe9211f8bec3d640U, 0xbf0fc942bf4cc482U, 0x3e80a32fbc17cbf6U,
  0x3f0feea5be49f684U, 0x3e96f542be5b80e4U, 0xbe8d31293d394521U, 0x3e87a0c73ed2ff00U,
  0xbe7268333e19e090U, 0xbe93181abe9d9f08U, 0x3e843f21beecc28fU, 0x3dd404b23e7aef24U,
  0x3f6d2af8402f88d4U, 0x3fbc69d73f279160U, 0x3f11d5033f12865fU, 0x3f84008cbfb94605U,
  0xbfb1ae1fc001a898U, 0xbee2b9b43f321737U, 0xc0604ad7bffaacdeU, 0xbf9fefcfbe7fb60dU,
  0x3f3e593cbf513de8U, 0xbf741afabf680784U, 0xbf09bd40bf87e1c4U, 0x3d9d9aefbf2df97fU,
  0xbdb32ae13ed74356U, 0x3ed5681bbecaaf1fU, 0xbe39add8be2a448cU, 0x3fd6f5c4bf2edd3fU,
  0xbd3c8fa4bf9d2bedU, 0x3e009ad53e7afd6cU, 0xbab17efcbe9f6282U, 0x3ea279b8bfa0b87cU,
  0x3c14bbc2be92e911U, 0x3fbad9983ed62586U, 0xbfc8625ebe87001bU, 0xbfee703bbfe8d8b8U,
  0x3e5663973e26c968U, 0xbd9c990cbd6691b6U, 0xbd29576e3e3bbf4bU, 0x3efa3a52bf12aeadU,
  0x3e8db9e1bf0bfac0U, 0xbda77ebd3b5fc37dU, 0xbc11f715bdf975deU, 0x3e9c93e6befba39cU,
  0x3d2254e4be9fd92fU, 0xbf4fe9eabe4d749bU, 0xbe6950c3bd990894U, 0xbe86d76dbeddb740U,
  0x3f1c0a123f8fcca9U, 0x3f84905fbb9df2f7U, 0x3f6f89883e8d991dU, 0xbf7d5919bf117a5bU,
  0xbede2c753f525716U, 0xbcce0ffa3f339d8bU, 0xc00489b0bf460694U, 0x3f35613bbde52f87U,
  0x3e6013b23d9b4eceU, 0xbf30ad4abec28b85U, 0xbed28952bf3462afU, 0x3eba91e6bf9f83d9U,
  0x3e9e5fc2ba5d14ffU, 0x3eb17f42bcb8cc0cU, 0x3e36229cbef0958aU, 0xbf5deb49bf15e669U,
  0x3e8823863c5fec38U, 0xbde93ace3ed73281U, 0x3ce0ebbf3e93f0f9U, 0xbedc935a3fccc5b7U,
  0xbeb4d3e6be37a90bU, 0xbf7da2983eda92deU, 0x3f3025a6beb29082U, 0xbf0aec71bf7a47e9U,
  0xbdbc74d4bde1425dU, 0x3ea89cd6be5b9e7eU, 0x3d8068f13e6310b1U, 0xbdab4ca4bef225b0U,
  0x3f059430bf587f11U, 0xbe0547acbd801a97U, 0xbd8d91eebeb5f672U, 0x3ed5d100beb10c30U,
  0x3d7a8f4abc97d6fcU, 0xbe100a333e978ea7U, 0xbe9989bc3d912a75U, 0xbe070cc7be3d9065U,
  0xbc2553e13dba3d23U, 0x3e80eed1be3ac8ebU, 0x3e0771e83f6204cbU, 0x3df0ba0c3f3759c0U,
  0x3ba11268bf5824fcU, 0xbf8d2ebd3e5047f3U, 0x3dbabeb2bd7d5bf9U, 0xbfefa6b3bf1ca371U,
  0x3d33c4aebd588610U, 0xbe2640c93c9208bdU, 0x3d4cf4abbe7e1db5U, 0x3e65f4f93e3bcc79U,
  0x3e9033b53e9538e0U, 0xbdb417403e842c69U, 0x3e0140943be870eeU, 0xbe6a8859bf3b8723U,
  0x3e9b7d313ebeb0ceU, 0x3ea58d213e9ee12fU, 0x3ec8d4debe923b8fU, 0xbea1bd013d2f4a45U,
  0xbe976743bef481edU, 0x3d76dea63e7d7e2cU, 0xbee639b6be1862daU, 0x3ea7ac733ec540a3U,
  0xbe62791bbcac5f43U, 0xbd5c51d03ccabb24U, 0xbe09bdcdbe2d6bbaU, 0x3e2121d83e812afbU,
  0x3c9aabfa3e163a36U, 0x3e34c779bc6aa66eU, 0x3cc986d8be416168U, 0xbd5cab553e078920U,
  0xbcc319b33d5962c3U, 0xbee30316bdac1dedU, 0xbe2be93cbe2a6d18U, 0xbf039eea3df6ebe4U,
  0xbd230f5a3bd0b90fU, 0xbd96cdc7bdd9541dU, 0x3d734f60bd07236cU, 0xbe921b0ebd805fffU,
  0x3d6aced9bdfea783U, 0xbe837ab1bd9689daU, 0x3b5240ba3d4185dfU, 0xba57f607bcaf15e3U,
  0xbdc2b9023d57044dU, 0x3e33ffaebdc1ab1eU, 0x3ce45f3c3c4e42a4U, 0xbcf50999beaae507U,
  0xbdb320b03e20e9c0U, 0xbedde91abe81233bU, 0xbd95e49c3e90d753U, 0xbef5a9b6be23663aU,
  0xbea642923ee1ca7cU, 0xbe84ad33be974b0fU, 0x3fc16b953fcddbabU, 0x3d76f4d3bd1988b7U,
  0x3f96e44a3eed9b46U, 0x3cbf2aaebf63d44dU, 0x3be0f370bceaf781U, 0xbd6abd0a3c971ba7U,
  0xbc93022f3d0f5f79U, 0x3c9e5a223bd82004U, 0x3d08c0ab3d8aed38U, 0xbd7465ccbdb6d061U,
  0xbd9784bcbdb00c10U, 0xbcd79fff3d565d24U, 0xbcf97ecabb4284d5U, 0xbcc86092bcbb9906U,
  0xbd3d24a73d23177aU, 0xbd235c883b83a972U, 0xbc6e3cf3bc2c7cf1U, 0x3b46d4003cb91b73U,
  0xbd88d00dbe2d69b3U, 0xbef68520be0aa1b1U, 0x3e1df33abe8d9612U, 0xbeff11bc3fbc32f2U,
  0xbd4bde29bdc57c05U, 0xbdbac8acbe7e32f3U, 0x3dbd6c3abdfed3bfU, 0x3dffd085bf46a7cdU,
  0x3d99c2953de6fe7eU, 0x3e3e4ff23d9cdb6cU, 0x3b387a183e13bdabU, 0xbe15bdb43d8f87b4U,
  0xbd146a6c3b8ed593U, 0xbdffce5dbd285800U, 0x3d5638373db533b2U, 0x3dcde7b93c169dbfU,
  0x3dbdf0f2be2db3c9U, 0xbdbc28cebaf4e55dU, 0xbd2b13e4bd7e3ebaU, 0xbf0970723d14b440U,
  0x3cf90e8d3d8fc4efU, 0xbe2813303d5dc3d7U, 0x3dc6db583e424b32U, 0x3bdbebf43dbeb0e6U,
  0xbe2ddc68bdc26da0U, 0xbe747accbd669d79U, 0xbe045beebe2bf210U, 0xbf07fe91be9302f2U,
  0x3da88f653e3e5642U, 0xbdd9d6813e64e0fcU, 0x3e2a2c81bb8441b3U, 0x3d5f5b90be09bc0aU,
  0xbcf333f53e3d9c79U, 0xbe2eb3f43eb95d24U, 0x3dd51ecc3ce58250U, 0x3e33863e3e9e60b8U,
  0x3db378763f16f6cdU, 0xbf3690ed3e4d9716U, 0x3e2215a1bdeab1c2U, 0xbe83835b3ca568b1U,
  0x3edc3dc3bd894f52U, 0xbcf545e8bd50d7abU, 0xbf79982bbf0ac870U, 0xbe857ec73f58a590U,
  0xbda64c493d9fe883U, 0x3dfa86493dcc9a87U, 0x3b04b94cbc828d2fU, 0x3db5cd153daf1484U,
  0x3cbf9f76bc80a3d8U, 0xbe41cff73da5cb0eU, 0xbd9cb7b4bd43aaabU, 0x3c8cd6fb3c8fb8d0U,
  0xbd720b5a3df0c22cU, 0xbe19b189be6fa4e3U, 0x3d40b728bc86098cU, 0xbe01013f3de1cb75U,
  0xbdd9c41dbe05e9ceU, 0x39d6a9283cf7cdffU, 0x3dada6c03ef33535U, 0x3e0167503dbf8131U,
  0x3be0725f3d7f772bU, 0xbf30c93cbf4fe4e5U, 0x3e5144363e7b7eebU, 0x3ebf34fdbd64bd72U,
  0x3e111cce3e6273a9U, 0x3c563ab2bd6944f0U, 0xbd2568673e8541d5U, 0x3e8e16b93e43aeebU,
  0x3d809cb53dde4207U, 0xbdf8c81ebe317902U, 0x3e49b4ec3ef0f18eU, 0x3e17982dbd98c577U,
  0x3e84bee73dcc9babU, 0xbe987c4c3d57e719U, 0x3d11e9d13ddd0e9eU, 0xbd968ffa3d93bbe8U,
  0xbcdac5933daab1a7U, 0x3e618921bea74ab1U, 0x3cb962ff3e0f0c0cU, 0x3eeb6e01bee9a61fU,
  0xbbb61814bd1bb543U, 0xbe4319f2be1e30a3U, 0xbd0e4600be0dc1d1U, 0x3d901e94be26d65dU,
  0xbd13dd2d3e34c247U, 0x3ea994dd3cad7b5aU, 0xbba57356bca0009bU, 0xbcb8d84fbe6d2545U,
  0x3d920143bce749a9U, 0xbd0198403ce057c9U, 0x3d1b43c73ba7709cU, 0x3d2f9966bdac76c7U,
  0x3df03f04be1713e1U, 0xbf3ba4d4bf2a2cd4U, 0xbec7bb543ebc8863U, 0x3ea10960be5d9899U,
  0xbdf921433db309aeU, 0xbe15a83ebd94123dU, 0x3f0b65cc3f1669d4U, 0xbc84c0853e101db4U,
  0xbcbb6807bbafaf95U, 0xbe07f7333d966ce3U, 0xbc8a6b85bcb62ef8U, 0xbbd5c40b3d8c25d7U,
  0xbc219fff3cc11ba2U, 0xbb618fe83d778a88U, 0x3d2450503d13691aU, 0x3c4d8db9ba6fccc3U,
  0xbb0e1c62bd48ddc3U, 0x3ce46d913ca063e5U, 0x3c99575ebccb5e69U, 0xbcb3c46ebcd914b8U,
  0x3d31ebb0bb20add0U, 0xbd5c27f6bc6d66c2U, 0xbc73e224bba27f29U, 0x3cd16671bd240f07U,
  0xbceccc15be4f12e3U, 0xbe662015bf3a70e0U, 0xbcd8dea2be662a86U, 0xbf5042dcbec84e04U,
  0x3dfa5a0d3d263db4U, 0x3ce556ccbd69b02eU, 0x3ad39dc0bd469a0eU, 0xbdde9b073ec77665U,
  0xbdc4dbc8bda35bb4U, 0x3d20670a3dab993dU, 0xbd2949ccbe092d9bU, 0x401e72523d0480f9U,
  0xbdffbfce3ea7d69dU, 0xbecf096b3d31bed8U, 0x3e60fec53d5811c5U, 0x3dc977cdbc1252fbU,
  0x3dba9bd13d8d7542U, 0xbd82a2ecbcd9cb25U, 0x3e4da8ca3da7c6a6U, 0xbe6946643e258bd7U,
  0x3e7f14a03d9895eaU, 0xbcd877723e012b5fU, 0xbdf095e8bd270296U, 0xbe4405863e070ebfU,
  0x3e08e4263d1b4f5aU, 0x3e458acfbe55c0f1U, 0xbe0dc6c2be8e105eU, 0x3e574431bd90a5d4U,
  0xbe04535bbe069d19U, 0x3ca48ff73d812edaU, 0xbd7b695dbe2773b1U, 0x3e4474af3d34e722U,
  0xbd394434bcdc4347U, 0xbcfc23ee3e3aa518U, 0xbd7f84803ba3e040U, 0x3e0042853eb7317bU,
  0xbcb333083d215090U, 0xbd8ac8b2bf291400U, 0xbe915d263cee11ecU, 0xbde563d73d5219bcU,
  0x3f9d26d73fc3c319U, 0xbc0e197d3b7f613aU, 0xbcfd1e47bde71c5dU, 0xbd5b813c3ca197c8U,
  0x3d9381593d0a8fdeU, 0xbd04b0483d004788U, 0x3c715765bdd013dfU, 0x3c045e2e3ddcf2fcU,
  0xbdc1980bbc8cbc83U, 0x3e2bef1bbce091f8U, 0x3de95366be78f6e7U, 0x3cce6b1d3ce21160U,
  0x3c240673bd242f99U, 0x3dcf9afcbd53164fU, 0xbd028df43ddeceafU, 0x3c50204c3d63d215U,
  0x3dabbdcebe1d7ca1U, 0x3d406b0abd72adb4U, 0x3c5e2822bd97cba0U, 0x3e054d433f0b165cU,
  0xbdfd3a603d06e48eU, 0x3f0449b33e0630dbU, 0x3cd217f23dde3b8fU, 0xbe462a25bdae7e0aU,
  0x3d4a0676be0c0302U, 0xbcc452b7bcff366fU, 0x3d814645bd33c4c9U, 0xbd2257bf3de73065U,
  0xbd3623c5bcaf4788U, 0xbfbce2433e061f53U, 0xbe4043753f0e834aU, 0x3e1e5226bd4ae1bcU,
  0x3d6614f13e1bdcb6U, 0x3e834fa6bc54ff77U, 0xbdfba405bc43f82aU, 0xbe00f784be37fd4bU,
  0xbdb9adfbbe04e755U, 0xbf402c423e02f560U, 0x3e1c5673bc43371aU, 0xbf0790c0be11cbcaU,
  0x3c6f22583dfdd505U, 0xbd1b83bc3deda00bU, 0xbe4e56b1bd3f23faU, 0xbe999d573e2a6565U,
  0x3d925868bd6e30c9U, 0xbeb657b2bb00196bU, 0x3d91e4003e5b32c4U, 0x3d751159be3849edU,
  0x3c2cad38be474a06U, 0xbd6354453e1b3295U, 0x3cf0c0d63d4f2a5fU, 0xbd335c6abbcb6ebaU,
  0x3e43a3dc3dc120f8U, 0xbdb863a8bdb126bdU, 0x3f27ca2d3e20bb22U, 0xbf48e3933cfa3ef4U,
  0xbcfe5bd83d887507U, 0xbe739b90bde95626U, 0x3ebe5b133f7d3583U, 0xbf2d9512bcf78652U,
  0x3fa096c23ed4f6e1U, 0xbd4feecdbf8713d2U, 0xbd04875f3c5ec616U, 0x3d316150bd96ee1fU,
  0xbd829cb3bae5b254U, 0x3c0a19c83d67f200U, 0xbd96d500bd82f0d5U, 0x3c19e9e43daa9725U,
  0x3c9a4ba1bd38ccbbU, 0x3d64807a3d916755U, 0xbca2ae15bd9bf38fU, 0x3d1e848bbdef7808U,
  0xbcdf74e53cd8461aU, 0xbc43593d3e1cfb82U, 0x3de5c026bd415a6bU, 0x3dab916d3d4607c3U,
  0xbe892da5bdf40af0U, 0xbf1b2a72be2b92cbU, 0x3eb6a895bea482f6U, 0x3ea9bbc93fb59557U,
  0x3d09897ebddb425aU, 0x3e6186b7be5ebc0fU, 0xbdb157053d293134U, 0x3e0fd85cbe0664d9U,
  0xbd4dc5613d8478e3U, 0xbdb8cf85be0f2f89U, 0x3d94caf4bd4c0ce9U, 0x3e06088abd997ee9U,
  0x3ea3a5613e5db303U, 0x3ddb3a633dbd81faU, 0x3da63ae93de8ca2fU, 0xbe0b07cd3dbfb843U,
  0x3cd0c145bdc59235U, 0x3e0a469e3d26b662U, 0x3d994449bc847a81U, 0x3f0c7f2d3dcc9990U,
  0x3da31db33e3c6aa5U, 0x3f09715d3bc43b0fU, 0xbe08c5e43d7e4fefU, 0xbe676104be4fc295U,
  0x3e8280ef3e168e6eU, 0xbc895812bdade2e1U, 0x3dcff0d5be98f847U, 0x3caf2b4d3da8c5f5U,
  0x3db1a24f3e6fd5a1U, 0xbe76ace2bc51a571U, 0xbe546763bd8f0a86U, 0xbdaeb96e3e125903U,
  0x3ccebcd23d8872dfU, 0x3bf811dd3de970a7U, 0xbe4198093c80b8f0U, 0xbd0b6dd33db6909aU,
  0xbf651c593f0e9a30U, 0xbe9098a63dab453cU, 0xbe8efb273e0db7dbU, 0x3b2f41503d3af744U,
  0xbeb22286bfc39586U, 0xbe55c77c3d337782U, 0x3dbd77583f02f63fU, 0xbd7b6587bef2d695U,
  0x3c87056abd1e3c97U, 0x3d3b4e98bd908d8fU, 0x3ceb49b9bc3c8af7U, 0x3d02fdb83d71d353U,
  0x3bd16a9d3be9ce8cU, 0x3cd9b3dc3c6bff3fU, 0x3d6f9e933d04e248U, 0xbc9121543cf8dbe3U,
  0xbd38c01ebc88a318U, 0x3db1890cbd29819cU, 0x3c81efe8bd314dc9U, 0xbc037d103d11c45fU,
  0xbac4389ebd7965afU, 0x3bf9e0d83b728954U, 0x3e0544cf3df40b12U, 0x3ed982d13d417fd8U,
  0x3cedc3b4be0ee9ccU, 0xc033e86abc78a963U, 0xbb7b2d9abdd68c00U, 0xbad0c1243e206c44U,
  0x3d8875483d9a0d22U, 0x3e280894bc5817b2U, 0x3d7730483c6d6528U, 0xbc7b65a63dcacf36U,
  0xbc98414dbe4e87c1U, 0x3e97d9c03d2cf181U, 0x3f27b31a3f611e5fU, 0xbd24f82e3c4f20d0U,
  0xbe09bdb4be15ef0cU, 0x3ea425243de10777U, 0xbda4049d3e16862aU, 0x3eaa88b3bb3563bcU,
  0x3d40d0dbbe79df1dU, 0x3c9370ec3f469daaU, 0x3da8ce9bbe299c85U, 0xbdc94c043f6a5948U,
  0x3df1378cbe078616U, 0xbda0f5543eb2b975U, 0x3e05dd90bddbc66eU, 0x3bd4ae0abe4421feU,
  0x3db340cbbd2cbb8bU, 0xbe0692e3bf16ec4bU, 0xbd2c649ebede06f6U, 0x3ce522623c1a025bU,
  0x3e6a680abdeb27f5U, 0xbcddcd4c3e992504U, 0xbcf5869b3e80f901U, 0xbe3f71fabda46115U,
  0xbdce9da23de747e0U, 0x3cce7c18bd405ef7U, 0xbde7339ebd023246U, 0xbe2cfb36bf03cc49U,
  0xbecf09a8bef37303U, 0xbd743dd6bd79973eU, 0x3eec367e3ed0d38eU, 0xbe2f50b03cd5e18aU,
  0x3e1e2d503b9b4e8bU, 0x3e9d3f73be4e3d88U, 0xbd89d7ddbe075db3U, 0x3de9568cbd97d043U,
  0xbe74f8cdbda8c3f5U, 0xbcc4f1903d435810U, 0xbc0477c03e5a5e93U, 0xbe2dc66ebe095671U,
  0xbdbb55db3dcc20b9U, 0x3b42e088be31b293U, 0xbd371fd5bda5c43cU, 0x3e29bdae3dbd9448U,
  0xbd637e25be2c0ba8U, 0xbd389a47bcce8481U, 0x3cf798113e2441eaU, 0x3ca834cc3dd5a3f1U,
  0x3e746bf93cf88791U, 0x3eb713c73f1c879fU, 0x3ec6504a3d803305U, 0x3d3f600dbeaf5367U,
  0x3d6a2cecbeaf85b8U, 0xbe3e51433d95df67U, 0x3bb50c893d63d878U, 0x3d342accbe90a3f5U,
  0x3e083e743d0c99d3U, 0x3d5a31dc3dbe7feaU, 0x3a1add9abe22a3a7U, 0xbd989de83e019f47U,
  0xbe9ca7193ef69b40U, 0x3e4165fb3cb80c85U, 0x3de19727be833e0aU, 0x3e348b90be0df70fU,
  0x3deb4a113d8847cfU, 0x3d46a5c5be663e35U, 0x3bc21a173dcb762eU, 0xbf12d53cbeba51c0U,
  0xbdb75e6a3d9363e2U, 0xbf265d05be23fb55U, 0x3d44388ebd3b7681U, 0x3e73e8ff3d6f7474U,
  0xbdcb7b10bdb16e92U, 0xbe94864a3e9c0e26U, 0xbe283283be64b928U, 0xbf0feeae3dae13c3U,
  0x3e0c2866bd9683beU, 0x3e0138d63e58057aU, 0xbe23281f3d84ec45U, 0x3d9e39d83d9d62e2U,
  0xbbe2b1143d865b9fU, 0x3e4335583e6b2caeU, 0xbd5457b8be051588U, 0x3c4d68093e87c8b9U,
  0x3eb348a6bea29672U, 0xbd8359d23f70a064U, 0x3e9dadbb3e395bd5U, 0xbd7380e5be370c92U,
  0xbf1ba14abf02a0b3U, 0x3db3ed7a3f1b9f1cU, 0x3f124b8b3e7c7cceU, 0xbd9161ecbeee614fU,
  0x3dab7cacbe1807b8U, 0x3e08fd203c8724f8U, 0x3d89d98dbe95a3e6U, 0xbe2dad483e7adcb0U,
  0x3d9c07bebda523feU, 0xbdd1c40dbe4fc2e4U, 0x3e05752cbc19e7e8U, 0x3da5be7a3c6a2d69U,
  0x3db1e2323cf157f5U, 0xbd9e70debd6a72f6U, 0x3e9f34a2bdf77163U, 0xbd1e2d4dbe84818bU,
  0xbc2c83c33bc4cdc6U, 0x3da953c23d8482fcU, 0xbe839299bdf61913U, 0xbe9fe27b3ec91804U,
  0x3e2a8f973e0bce32U, 0x3f92d22e3f91a43bU, 0x3d4c34e93d06bf66U, 0x3d8bb0773e6c89abU,
  0xbe8251443d894f45U, 0x3d85382ebcad595eU, 0xbdaab87c3e3762aaU, 0x3d0215523e54715bU,
  0xbcc80dcf3d5622e1U, 0x3eabd113bd9cd21cU, 0xbf121616bf09294bU, 0x3da1e8553e71d3c6U,
  0xbd2fe384bd2f55f6U, 0xbf0dbebf3daadf3dU, 0xbe143c993d69eae4U, 0xbe8b828e3e62f713U,
  0xbd512a0e3d6bf6adU, 0x3f4c78fe3e4eb8b8U, 0xbe0bed97be4afca3U, 0x3f35f7d33ea19eecU,
  0x3d9878d83e69a886U, 0xbd7f15b7be3863acU, 0x3e18aa63be3e6700U, 0x3f1d3721be697246U,
  0xbe24e175bec8f66aU, 0x3f593e223bf886c7U, 0xbc00817f3bfe54ddU, 0xba91f714bde1fcb8U,
  0xbe2d86ae3db6dbeaU, 0xbd884186be3cedf1U, 0x3e48e9623d254c44U, 0xbdc30743bdeb1feeU,
  0x3e0b17403dbcfb48U, 0x3d9e475bbe774a2cU, 0xbf06ae2c3f094b7dU, 0x3f8419803e34f335U,
  0xbdcbbcbb3e2962a0U, 0x3d88b4303e578fccU, 0xbe7c9d1dbf6e818aU, 0xbdb29e013edb3222U,
  0xbe1605703dbc81f3U, 0xbda65ab9bd7893ebU, 0x3e5824923c906393U, 0xbcbc4b04be00e6eaU,
  0xbe238159bd71cc1aU, 0xbdd0f7cf3d3894a1U, 0xbe4f2f16bd906214U, 0x3d1cfbf2bd2ef7f0U,
  0xbdad3f2cbe496401U, 0xbc3b7438bdc5c7f6U, 0x3e19d6eabd793f29U, 0x3d1982b2be8526a3U,
  0x3d3beb6c3aadd106U, 0x3cd629273e014c7cU, 0xbbc300b3beb87a34U, 0x3e161b38bd06bc0dU,
  0x3dbee90bbe42be92U, 0x3ef1af863c8af582U, 0x3d1c1fc7be860936U, 0xbf9425eebec54bebU,
  0xbd09a7113d3c40f9U, 0x3b5cde323dda580bU, 0x3dab60e93b76c303U, 0xbdf0fbe33e42ea6eU,
  0xbe85c3173cbe033eU, 0xbe8a4045be41c87eU, 0x3be97b7abe0faf99U, 0x3edbd5903e1abbd8U,
  0xbea6368e3ea4fbe5U, 0xbe5edd7f3d9aa1c4U, 0x3ba06ca83dcab223U, 0xbf22a9f33e41f68aU,
  0xbe10588e3db32b24U, 0xbead07c6be29b3adU, 0x3c3004e6bd67c95bU, 0x3f491eca3d8a6fc3U,
  0x3e9ed8d6bdd6f5f8U, 0x3ef03bcfbdf27007U, 0xbd82c8d2be606af2U, 0x3eac50693e144cedU,
  0xbc80bd9fbd759678U, 0x3f0fea50be2bfea9U, 0x3e37869f3e8ba865U, 0x3f501523bdfb0894U,
  0xbe8140ddbdcb9623U, 0xbd99ce973e3e26eaU, 0x3e58ad8bbe04319cU, 0xbec77cf7be4735cfU,
  0xbd36d55b3d98bb37U, 0x3d9ee8ddbf154507U, 0x3d7c5e80be095e10U, 0x3d6fc7743dc76219U,
  0xbd0fd39b3db559bcU, 0x3f9db6773de969d1U, 0x3d97fbffbe5dfaabU, 0x3e636a24be547e29U,
  0xbf584e6bbf7f82b5U, 0xbd95b8393e6df6e0U, 0xbe2d162bbc16a502U, 0x3dafe33f3e04ea9eU,
  0xbcdd3b38bc0063e8U, 0xbc3b72243e046a89U, 0x3d3f8480ba4451cbU, 0x3d83873b3def6b46U,
  0x3e558ea4bcdca83aU, 0xbe007b133d8aa784U, 0xbd9c6f2fbda35ce7U, 0x3d0d92083d7fb67bU,
  0xbe3697293bd33fffU, 0x3d4944773c52591bU, 0xbd3a321b3d8344f6U, 0xbd82b89c3cf5c5a4U,
  0xbc0ffd893da4ed5bU, 0x3d8af9c63c28ce06U, 0x3c8425ba3d8a824dU, 0x3eb0779cbda8fa0eU,
  0xbc3cd7373df23061U, 0x3d249eb3bf4edd87U, 0x3c88500cbd2e79bdU, 0xbda3f83dbe048451U,
  0xbdb19e5fbd87fca3U, 0xbe1d012bbebb9740U, 0x3d100b6bbdc533d5U, 0xbe25fbfe3d3a1de0U,
  0x3df947173d2a8970U, 0xbf842f0f3e01412bU, 0xbec42fadbf15370eU, 0x3d8ac5563db6d266U,
  0xbda84e40be7a9729U, 0x3e9544763e645271U, 0xbe2364d1bdc11b1eU, 0x3e9c20a5bd6db99eU,
  0x3a515b2e3f19b901U, 0xbebcc49bbe00b398U, 0x3e6980a33f06209bU, 0xbcff048639ffeefaU,
  0xbe36fba6bdf0ac9dU, 0x3d5dab08be12d910U, 0x3e121c483b8d35d2U, 0xbe823bbe3e81d4beU,
  0xbd1bf63c3e588077U, 0xbf27478f3f087a0fU, 0x3e4ff1df3e4cb512U, 0xbf3dc3873d1e25bfU,
  0x3e247111bd407137U, 0x3c5f9a473d9a2cb1U, 0xbc3b8b803e006498U, 0x3d55e618bdaf8616U,
  0xbdb712abbd8b3d82U, 0x3d9901383badfe34U, 0xbe5ff4213ec95a5eU, 0xbea74f7a3ece5dbcU,
  0x3c89f273bd95e874U, 0xbe2f606a3cf080dbU, 0x3e826049beeea2aaU, 0xbca1879dbf0021faU,
  0xbe1c209b3d491268U, 0xbda1c0df3d73fb8bU, 0xbe181604bec395ffU, 0xbec223afbe71d698U,
  0xbe8234443e2fa677U, 0x3d2781bcbd963f4cU, 0x3d3510c53dc830deU, 0x3d813376bd98200eU,
  0x3e2fd6c63de2c9dfU, 0x3d21d3093ce9919eU, 0xbd5144793bb60da7U, 0x3df66916be94dd58U,
  0x3e63f4193e0c4218U, 0x3e16f83b3e3f85e3U, 0xbd9194c13d5abb83U, 0x3e0666dc3e2d8549U,
  0xbd3d5fab3ed50b7dU, 0xbdbf74103e53de53U, 0xbe14d633be17d3e1U, 0xbf904957be27e5f0U,
  0xbde5674ebe0cbcc6U, 0x3e4497df3de5f349U, 0x3e2bf8f13df14543U, 0x3e34d7a4bdbefeb6U,
  0xbd584d8e3e4466acU, 0x3e162070be737fbaU, 0xbe6d6f963dfa8549U, 0x3f219be33dcf3a5eU,
  0x3f933c0fbfa94391U, 0xbdd141b73d8d008fU, 0xbd2b11ca3e22aa30U, 0xbdde7f7cbddf186bU,
  0x3db872ba3dfa9112U, 0xbdfb485b3cfd1ac8U, 0x3c89f229bd553676U, 0x3ecfcb153f42b782U,
  0x3e4cf3db3b89f577U, 0x3e83d26f3f049ecaU, 0x3d422c57bd018cc4U, 0xbdc92b0d3e19fdf1U,
  0xbe616e69bdd5080aU, 0x3c6023f8bee733e1U, 0xbdbe3983be2c1101U, 0x3eb906d8bf66516eU,
  0x3cb0bd15bd89afc7U, 0x3cc334f5bee73588U, 0xbda2d8653dd4191eU, 0xbdb47cda3ba3ab0aU,
  0x3e046f493d9eb0a0U, 0x3d53c2a5be81cbefU, 0x3db50f8cbe334dfdU, 0xbea21fb4bd5c0e41U,
  0xbd4e52c83ee07104U, 0x3ef55b3cbe09a4bbU, 0xbd003d1f3e1df950U, 0xbe006e00be7bd550U,
  0x3fa5093f3f8f84c2U, 0xbe0e9597bed6e733U, 0xbf2887b5be8000c2U, 0xbe1751393f10bf8dU,
  0x3d65a367bd8c2a59U, 0x3bd9fda1be197427U, 0x3dac1368bbc9649cU, 0xbcb7fbdd3d805961U,
  0x3d8de8a9bcc1fb3cU, 0xbd5ac4ab3d6cdc6cU, 0x3c650891bbd965fbU, 0x3d195b0abdf4f52bU,
  0xbde4ba5d3c04c2f8U, 0xbd99bffbbd204bffU, 0xbe30fb5f3c869023U, 0x3d27fd813d39a436U,
  0x3db32480bde84ee7U, 0xbb98bf433c1bf530U, 0xbddfc095be1723fdU, 0x3e72addf3d313e91U,
  0x3d6eafe43dbfd521U, 0xbffe1de1bf424714U, 0xbc0318b5bd3fb3faU, 0x3d62ae983d3ccac7U,
  0xbcc8b2263d6fb0ccU, 0x3d519298be09a987U, 0x3ca598503d6e57bdU, 0xbd716c403e8012e2U,
  0xbcaef5253d5fa09bU, 0x3dc361c6be398c68U, 0x3c5ebcd03c46640aU, 0xbe991a3e3d076fd8U,
  0x3e1d148b3cb98a91U, 0xbbfe1bef3d10df5bU, 0x3dace8ee3cc23f27U, 0xbd4046893c70bf02U,
  0x3cc5d783be80a981U, 0xbe3140e53dd21aacU, 0xbda65cf0bb424672U, 0xbe7fd7993e4242c1U,
  0xbdddb8f13e1f3aa0U, 0xbd9ffe313d5cbdd8U, 0xbd07e85abe74d60bU, 0xbd9e790fbe4243a2U,
  0xbe07f6bb3ced2425U, 0xbd1a90d8bec4db0eU, 0xbbad5787bcae765dU, 0xbcad7c21beb53ebfU,
  0x3b261d9abd802f70U, 0xbdae72b23e8e2b14U, 0xbd34d5703c097a1cU, 0xbdb4603bbd525ef2U,
  0x3e406db63dda52f0U, 0xbdc7b5c8bd4b8b23U, 0xbd82a3b33eebe907U, 0xbec7a9e7beb3add4U,
  0xbda67c3a3eff1adaU, 0xbe8afa1cbeaf1daaU, 0x3f9ee3783f8af521U, 0x3e622811bedc905bU,
  0x3f69da983ec21c78U, 0x3c50e58dbf3bfb89U, 0xbd064df83d5d6c93U, 0x3e0db5383dda3baaU,
  0x3caa3abf3d6e62b8U, 0x3d137ddebe2ec050U, 0x3d7feb9fbdbf3415U, 0xbc4e3a313d4ecb23U,
  0x3e09de833de2fec6U, 0x3c9f01d4be08a741U, 0xbdaad85f3d21025fU, 0x3c140ca7bda2ab0dU,
  0xbd4bd51c3c96d004U, 0xbd32fb593b1396ceU, 0x3d8c2e4e3d1dfd7bU, 0xbd6bb7cbbe4295c5U,
  0xbdcd6b2dbbf9ec2dU, 0xbe8cdc0ebe2822b7U, 0x3e13168dbd7f35a0U, 0xbf28bc693f974372U,
  0xbe45f7493dcdd7bfU, 0x3d834a50be78ccf1U, 0x39078f0fbd58534cU, 0x3dc9dd46bf164217U,
  0xbd38dbb43e774361U, 0x3c3757e63debda20U, 0x3cb6bd93bdba8302U, 0xbe498328bdbbfe5cU,
  0x3da1b4593df6a0a0U, 0xbe843ad8be1808bbU, 0xbd2da335bddc760fU, 0xbe31ff653db78bd3U,
  0x3c5d3331bd40a5c5U, 0xbda8990c3d241328U, 0x3cd6dd793e0d5166U, 0x3f466ad3bd3c0f8cU,
  0x3d80ed853e080773U, 0x3f6b2ecd3e5bea6dU, 0xbe073858bea840c9U, 0xbe7abf9bbe3e4f23U,
  0x3d1a73fe3e4b77d3U, 0x3ec28f593dd84fafU, 0x3e32ddf53f09fef6U, 0x3ee8f7b53e6b7944U,
  0x3e86082bbe0732c4U, 0x3dc1960dbcef32e8U, 0x3e0112b43da81fedU, 0x3e2045a3bec2fc23U,
  0x3e4d4834bd873dbdU, 0xbd934866bdc752c2U, 0x3d2ddbf83e36f49aU, 0xbf076d61bf2967acU,
  0xbdbebebabe05a239U, 0x3f3d98b9be6a0d98U, 0xbe520b80be510d16U, 0x3f0cf80ebe1e2492U,
  0xbd067c9ebed5625bU, 0xbd43e5e23d495ad6U, 0x3d2edb4abe375adeU, 0x3ddfd6c3be977ba4U,
  0xbe08ede63dee7c33U, 0x3b87ea47bdf8b218U, 0x3e183ba4bee8d4f3U, 0x3d082d7cbd5c6f9cU,
  0xbd958d133e0d7955U, 0x3de0b6e8be17b13eU, 0x3c77b0bd3dcb4649U, 0x3d3ea1393cfc1c33U,
  0x3e067138bdf08401U, 0xbde4bb30bd474ea9U, 0xbe5917073d3e293aU, 0x3b72a2be3d59cd20U,
  0x3d8dbea53e30a113U, 0xbcdc5539bdecc464U, 0xbeb603e9be3d138fU, 0x3da68c1ebf0d2be1U,
  0xbe30c927be420f5aU, 0xbf68362dbf13cec1U, 0xbdbb9da6be95bdb6U, 0xbe20aba0be4ce667U,
  0x3cf844e9be2e9c95U, 0xbddb76cdbb570139U, 0xbdc3ddaebdfbcc01U, 0x3d8814873cf92d7aU,
  0x3ccd28fa3e0af8acU, 0xbf4c489d3e1b1282U, 0x3f3cf94ebf38b9e9U, 0x3e5a7bc53dc37ac9U,
  0x3cb9f8e3bd220c68U, 0xbe7041bc3df4ad23U, 0x3d6765cebd1b2edeU, 0xbe23a45fbd5b038bU,
  0x3e64677abe6adaa7U, 0x3e4e4b6d3ed1a203U, 0x3e4e0770bde6a10dU, 0x3d07cbd03f161f04U,
  0x3ca1e0073e8b36d5U, 0xbd8815603de45f25U, 0x3dc8bd61bdbcdbe2U, 0x3ef1eb2bbefee250U,
  0xbdad6976bf091d77U, 0x3f04e84bbf32ec78U, 0xbced87a33e3234b0U, 0x3d364d64becf7949U,
  0x3d8048693cb63c47U, 0xbdf45bfc3e506681U, 0x3dcfd4ca3d10ac08U, 0x3e04cbaf3deb9857U,
  0xbe26de383e48a6c2U, 0x3c8c1ee53da7f75fU, 0x3dd1442c3e5abb97U, 0x3dab6639be4bd7efU,
  0x3e17fba53ea09ea2U, 0x3e5d6d20bea49c65U, 0xbf050ab9bf79430fU, 0x3acf452abf37dc78U,
  0xbf84c0f2be3ad305U, 0x3e1eca243f5d35dfU, 0x3d4b478cbda1ccecU, 0xbdb0eeb6bd7e4683U,
  0xbdc4ab77bcab197fU, 0x3dccb4293d72b90aU, 0xbd5e0d6a3dd82b50U, 0xbd40aaecbdcc5fa6U,
  0xbcbc5e9fbccbd1d0U, 0xbd22da8bbe0d7297U, 0xbc4704ddbc0d5181U, 0x3daa9e0ebd264d9fU,
  0x3d736fc83dd6f071U, 0x3c8d7ff4bcc55ec3U, 0x3da1dcfdbd1f9db3U, 0x3c4066fb3cc116f8U,
  0x3ead6ffe3dcc25e1U, 0x3eb2f1d53f00629fU, 0xba4f584e3eca7864U, 0x3da3eb6ebf9bac0dU,
  0xbd8b25323d85ba4dU, 0xbd0c03b03c734ee8U, 0xbd12b2173e0543a8U, 0x3d733bb23e8b424fU,
  0xbcb98e483e261fedU, 0xbd3f56ae3da02444U, 0xbd88bd403beb8c3eU, 0x3e46b8bb3c86f01aU,
  0x3e68301c3e367c99U, 0xbee58bc8bb9956e7U, 0xbd1cb61fbc07997cU, 0xbbf0e8cabe0a9cbfU,
  0xbd8803743d1476c5U, 0x3e3ad81bbe43370bU, 0xbcdb28723ebce258U, 0xbe248efd3e85ea17U,
  0xb9d167663daffd81U, 0xbe88f3773dfc53e8U, 0xbdb2f71cbecdf850U, 0xbe1073063d767e09U,
  0x3b172df33d675ec2U, 0x3dd86e023e455000U, 0xbd95fd4a3f242ca7U, 0x3ba9d46fbec2fc71U,
  0x3ba859aebe065e5eU, 0x3d2682c0bd52b807U, 0x3db79a43be3db764U, 0x3e1e6c11beb81ba9U,
  0x3bc1b7083e125a24U, 0xbeacb3073e210771U, 0x3d0273543dab5874U, 0xbd99c72f3e042171U,
  0x3def8ddabfa1d947U, 0xbecbe7d93e170169U, 0x3f1015cfbe93ebc1U, 0x3cca5d643e3cc355U,
  0xbeabbcb93f8415a2U, 0xbf0c0d5fbe5e20f6U, 0x3e77437cbedeb945U, 0xbe9732903c98b44fU,
  0xbd53cd86bc3e62ddU, 0x3d4ddcbcbce66187U, 0x3cd975d83ca2550aU, 0x3ca8cd18bc107037U,
  0x3bfd13a83ceadc0dU, 0x3dc1b780bd6e29dcU, 0x3ac8df54393fc5e4U, 0x3ca665693ce7ac08U,
  0x3c8a6b843c21c3f2U, 0x3901cdc8bbd0b107U, 0x3d2bc45dbca63c3aU, 0x38aeda2f3dd6877dU,
  0x3d01a224be033d2aU, 0xbbed6e3a3c56729aU, 0x3c97e4cc3d8e35fdU, 0xbe37006c3eb81fe8U,
  0x3e7b65983e7ae0a9U, 0x3e5ae89bbe46c466U, 0xbe40a8a13cac1806U, 0xbd459e9c3d8b5acaU,
  0xbd571a31bd40bab1U, 0x3d891a4bbda0f92eU, 0xbdcc852fbe4e75dfU, 0x3dedcc8a3dd5efb4U,
  0x3d0b57303e2a38eeU, 0xbdfcb0463d65776bU, 0xbf98edb5bfe4cf5eU, 0xbc91b2d4be01b952U,
  0xbe12caa0bc53c017U, 0x3d1ba2c6bdebfbf4U, 0xbc8bf3fc3e0e86f3U, 0xbc1559883e418bb4U,
  0xbdb353823e83cc2fU, 0xbe863e88beb4f47bU, 0x3e836c723e4906d6U, 0xbe69d906beb70629U,
  0x3dea4749be98b392U, 0x3e3abd063e3bacbfU, 0x3e05b1cebd28e4b3U, 0xbdaf32a6be46ffa3U,
  0x3d8103163e9f9001U, 0xbdf890cfbee778a6U, 0xbcf237b9bea4e5f0U, 0xbe3ad807be43e67aU,
  0x3c7c67ad3dca51b3U, 0x3d0859b8beb8fdc1U, 0xbc5636203e27b27cU, 0x3d54597b3e26ab61U,
  0x3da0bf04be070cb8U, 0x3e93e1fb3e6cee7eU, 0x3d2d757a3c891182U, 0xbf2ac957beb7729fU,
  0x3d2094d1be0f028cU, 0x3e183c53bec7c95bU, 0xbfa47325bf89b6e0U, 0xbe43a170bf0e7171U,
  0x3eae10993d16efbaU, 0xbdb944d7becf3125U, 0x3d04302f3d9d57b6U, 0xbd0a52d53c7b4d5cU,
  0x3d474f9f3c48c622U, 0x3d23d7253e7d9917U, 0xbd88bba63c723f54U, 0xbd8d91fb3db86725U,
  0xbd28f444bd15a30eU, 0xbd283f47bc6f08b5U, 0xbd80cf85bdceaf2bU, 0x3a1c56d2bd775aa2U,
  0x3dd91e503d007e5eU, 0x3dadc468bd559c3dU, 0x3d3199fdbd41cf88U, 0x3d631f743cbc93bdU,
  0x3e6b48013ec6e38aU, 0x3ed79cd83ed73da8U, 0x3edd36e03e1e03ceU, 0xbf05f325bd2fa0e8U,
  0xbe0511663d0e68b3U, 0x3e38076a3e70d69cU, 0x3c09cfb8be1f42e8U, 0x3cef208d3e2f1ab9U,
  0x3dc96decbe290b1aU, 0x3e15e9c73e266476U, 0xbdb064f43d8b461bU, 0xbeb57e143dbd9280U,
  0x3eaf6d473ce4f62bU, 0xbd840d6d3d3aefc7U, 0x3e0f7b1cbe0a5cedU, 0x39993058be925b1aU,
  0xbe5289cdbdd21b0aU, 0xbd0906b0bd1e4a6eU, 0xbe989f213e2d9f4fU, 0xbf798f5ebe5640afU,
  0xbe801abcbcd6e20aU, 0xbf775f6dbe3edf6bU, 0xbda15d863e81b860U, 0xbe08e3763e06a1caU,
  0xbe020b65bd5e9d6aU, 0xbf2e003f3e92413eU, 0xbe1d7524bd1bacebU, 0xbf5039793e521808U,
  0xbd38ecfabdf700d9U, 0xbd39dd563d0a034aU, 0x3da4955d3dd8bffaU, 0x3e2afaaa3e2d3f3cU,
  0x3daa4b173cc18adaU, 0x3da30b273dfdd195U, 0xbe22e8de3e2af69eU, 0x3e0afa293ec46acaU,
  0x3ebd6b26beda94fbU, 0xbf1915ad3f04f9b5U, 0x3dece3a43cd651f1U, 0xbe7804d03d07194eU,
  0xbf9518d0bf9aa17cU, 0xbe36b9033eeea069U, 0xbeab5501be0f1da9U, 0xbd94bcb53ec8717fU,
  0x3d29c263bdc73d80U, 0xbd8490dc3a8098bbU, 0x3d7c52a4bd59aab3U, 0x3d8fefdf3a48742bU,
  0x3e245b413d2015a8U, 0xbc0bcae93cccb333U, 0x3cab2e0f3d99a2a9U, 0x3c87faea3d9355adU,
  0xbdbf6e293cc2fdbfU, 0xb9a887ddbc156bc5U, 0xbd30bb20bd8015d8U, 0x3ccd430dbccd9231U,
  0x3cfca85fbcd35b87U, 0xbd609ae0bd09d0baU, 0x3e30499f3d85cf86U, 0xbe3797c03ebb29acU,
  0x3e008c813df96306U, 0x3f9ecccdbd174c53U, 0x3b7f86afbe20ccadU, 0xbd393fd5bdbd2f93U,
  0x3d3cf869be785d4fU, 0xbdde3beb3e28d58aU, 0xbcd4b4f13d2b7b33U, 0x3e38c863bda1c8caU,
  0x3dce6d1c3ca4d9e2U, 0x3eeacf323dae1e95U, 0xbf03fa9fbef3af5eU, 0xbcdcebfd39c67980U,
  0x3e197945bda1946dU, 0xbe78798a3e352bb3U, 0xbdaff2823d574e28U, 0xbe3248e93b9f33d0U,
  0x3df91ad53cbee43eU, 0x3f66cd333e1e031bU, 0xbda3d0adbe28608dU, 0x3f32ac773d144769U,
  0xbbcc6f74bba2568aU, 0x3c26d2c4bea6b71cU, 0xbd2c0ed1bc84efe8U, 0x3e2c57343e4c84e4U,
  0xbdd1f4fbbe95141cU, 0x3ec49f923f2bd4e0U, 0xbd4e45e53d1b235cU, 0x3e35a2793f0cf7baU,
  0xbe2337333d4a7c00U, 0x3ee55bc6be5e7ec7U, 0xbdd990d43dc5105aU, 0xbeeea0d2bdded677U,
  0x3e3ee344bd173e3cU, 0x3e392dd3be93db9cU, 0xbe9fd45d3e7d999aU, 0x3e7f09eabdeb69b0U,
  0xbd0dfbed3eeccf2aU, 0xbca0b4b03e49306eU, 0xbe5aa95cbe62c214U, 0xbdacef263ee1dc0cU,
  0xbdfded643eba4a08U, 0x3d4712523e90935cU, 0x3c74f7d3be1351f6U, 0xbdcfc0383d591ec6U,
  0x3dde4102bd90eb04U, 0x3dce10453e61979cU, 0xbac9d1703e0cc242U, 0xbdbe5210be383779U,
  0x3e0b8a0c3db67618U, 0x3cc74af2bd543175U, 0x3e829847bdd90648U, 0xbe0ee95bbe89af39U,
  0xbd05f1b33c2e91daU, 0xbdda95233d290be1U, 0x3d208822beba1336U, 0xbe32a98d3ca5a538U,
  0xbeb1e188be8918f0U, 0x3da6d5f5be3de4dcU, 0xbdbbdeb93efb69c9U, 0x3f8285653ea70ff2U,
  0xbdf9c5773e9f1aa4U, 0x3d0dcc76be845a3cU, 0xbdbff46c3cf07b70U, 0x3e88d1ddbe85e1a8U,
  0x3e21c4e5bda9377dU, 0x3e365b52be5b8a9eU, 0x3d01ceeabdb0259aU, 0x3f16edd53e124fbfU,
  0x3e9a6a333f7043b4U, 0x3e5bc71cbca49fdbU, 0x3e3250353e0701a8U, 0xbd588480bd94e27fU,
  0x3db60065bd7cd325U, 0xbe6f8b6ebea1c5e6U, 0x3cb6e6abbe698a50U, 0xbedc6dc9be8a7779U,
  0xbdebd2d0be7dbd12U, 0xbeae3295be85e978U, 0xbd7806ffbe572eb6U, 0xbe40d7be3e795429U,
  0x3da91ba53d71e77bU, 0x3e04f4993e1c1e0cU, 0x3ddf8025bda83faeU, 0xbdf00543bc033d6cU,
  0xbdc39cbebe09f59bU, 0x3aa66d3bbc2bf989U, 0x3d297e95bd43ae10U, 0x3d260da9bde2dd73U,
  0x3d9660d43df5c367U, 0x3d456fe8be1065c9U, 0xbda32ec83e498f94U, 0xbee17979bf316b30U,
  0x3e8f7da7be8a1cc2U, 0xbec636303e80e0b8U, 0x3e5a33063e984d1eU, 0xbdd9460a3d01947cU,
  0x3ed916b53f9c3736U, 0x3e5296f9be00f053U, 0x3f899c163eb41a94U, 0x3dd34740bf985438U,
  0x3dab4645bce0f393U, 0xbd8742c9bda93f0aU, 0x3db759a8bd0660f9U, 0x3cd2b5a4bd4b7946U,
  0x3e02449cbd222ecaU, 0x3d976ee63c47f8c2U, 0xbd6646b63e2a5568U, 0xbd86c1a03d90c0c9U,
  0xbd436ab4bbeaedf1U, 0xbd8e3c01bd588a9dU, 0x3da6362f3ccb594dU, 0x3db6d55bbd5e73ceU,
  0x3cf3ca3fbd723c98U, 0xbb37d5893d473df1U, 0xbd4d3597bedb7df7U, 0xbefff186bed40a7eU,
  0xbda3b6d9bee8baa1U, 0x3f686e783f8b14e3U, 0xbe58a0d9bdc8697cU, 0x3d16bdef3e09ffc6U,
  0xbd71a5f63dce9990U, 0xbd297e6fbd89b436U, 0x3b7a6787be19a9e6U, 0xbd8b2b4a3ce07a75U,
  0xbd530a36be371f6dU, 0x3da236f03decf14bU, 0xbdbb2a4dbe8d5fa7U, 0x3d301b4ebca15425U,
  0x3e2ad0ec3de13a23U, 0x3e4a6b1b3d9e12e1U, 0xbd55a36e3de7204cU, 0x3d841133bd995225U,
  0xbd17dab73e230e5dU, 0xbf7804d13e3d5a80U, 0xbe173a233e92873dU, 0xbf8fe6703d208d37U,
  0xbdecb86a3e18e648U, 0xbedb3aadbd86d4c5U, 0xbdda54dfbd9468aeU, 0xbf60079d3dc1b285U,
  0xbd632461be212b4aU, 0xbf6908963ee98a6aU, 0xbc72a8473e253b51U, 0xbf954bad3dcef23bU,
  0xbc534594be00cd4aU, 0x3d30162d3e5cb50aU, 0x3d1e9baebd981820U, 0xbe01c8463e177c9aU,
  0x3d96f5183d9ac6bcU, 0x3e4ad5d83e2e1afaU, 0x3e9a4303be419234U, 0xbf4e38363f1b9587U,
  0x3daf8c343e25e243U, 0xbf03c15d3ed2686eU, 0xbedff748bea7d98fU, 0x3da4475e3e12e720U,
  0x3d6577403db5070cU, 0xbb99f04a3cc303c6U, 0xbd7697b63d88325eU, 0xbdd27ce2bc9a3e96U,
  0x3d9803143dd025e6U, 0xbd146a693db9aa21U, 0xbd16fe83bddbf954U, 0x3de07eb7bda80f22U,
  0xbdab3308bdad1722U, 0x3caec0943d3ffdc6U, 0x3d21a3933b359ac7U, 0x3ddd73e1bdbc2a3cU,
  0x3ce505e03d5324cfU, 0xbdbc30ad3dcd8a51U, 0x3d5cdbe33c0840eaU, 0x3e0299e83d945131U,
  0xbe940df93e585c31U, 0xbd2917ab3ef8e6aeU, 0x3d91010ebe88f4eeU, 0x3f434ed33ed1b717U,
  0xbd352dddbe468091U, 0x3e6b45b93cc23d6dU, 0x3d048d803df9ecf3U, 0x3d89b602bdd9e542U,
  0x3cde81013e543bd0U, 0xbc8820eabe47fd63U, 0x3d72b149bd813e12U, 0x3ea9c76bbdb87992U,
  0xbede4c8abf60a34aU, 0x3dea5c8fbe2bb8e7U, 0x3d49c0e13b89794dU, 0xbed1d439bddcddefU,
  0x3d7777b2bdf6974bU, 0xbedeb9edbe5c1e4eU, 0x3e6bb098bed6508cU, 0x3e8c501ebecba77bU,
  0x3db79cd6bea76044U, 0x3ecf596cbec22505U, 0x3c570c6c3e3c4c11U, 0x3c4afe543e859ddfU,
  0xbe04b4213cd8741cU, 0x3f03e51b3ddfc3f5U, 0xbd05d90a3d853c21U, 0x3f20f872be1d26fcU,
  0x3e284ca9bc757b19U, 0xbbfd70ce3df95138U, 0x3de749a73dd22f0cU, 0xbd7bbd733db26e29U,
  0x3dc7532dbdd3d020U, 0xbb8b965bbcb001b5U, 0x3e43888ebdcc549eU, 0xbf1330b2bf0a8d71U,
  0x3e3615bfbf0b38bcU, 0x3f653c73bf5a8794U, 0x3f02358f3d81675bU, 0x3e9c560cbd8461a9U,
  0xbd45d2ae3f2e4352U, 0x3f03e697be99c9bdU, 0xbe0c9fa8be700a62U, 0x3e2a76103e982f4dU,
  0x3d18b7913c6b08f7U, 0xbd1d0a61bd6ff7baU, 0xbc895f22bc833411U, 0x3d5dddb53d438200U,
  0xbcbbef14bde19fd4U, 0x3d4b83493cb2da46U, 0x3c867dfa3d7150c1U, 0x3d32bbb93d251e1cU,
  0xbd3b5faa3b0d7c21U, 0x3b64daf5bd8c4f78U, 0xbcee01a2bd50e0c6U, 0xbe2ed0c03ddf03e9U,
  0x3d99b100bb872739U, 0xbdd04262bc4adf91U, 0xbd8ab93abf07010dU, 0xbed9ebb6bed433e5U,
  0xbe42802c3e177c77U, 0x4001c1adbf303c31U, 0x3e0b0609bbbdcd64U, 0xbe977b043e852fdbU,
  0xbd97b343bdf21590U, 0xbeacee693e4ae829U, 0xbd6ed60b3d54bd7eU, 0xbe907a953e03c495U,
  0x3bb0a4143de9c16bU, 0xbe09c393bdc20a15U, 0xbdf3e5b9be876352U, 0xbdd345263ce62714U,
  0xbca20e813d5615d5U, 0x3e02dd55bca1ecb7U, 0xbd5d7989bda7cabaU, 0xbd888e4d3d0f357dU,
  0x3e443f8b3e3cdbbbU, 0x3d82942dbe4f1173U, 0x3e34b2473d7e6faeU, 0x3d5fe356bc0a92abU,
  0xbdabd69cbd84b3f4U, 0xbd3ad7503c4e9890U, 0x3de989ab3e31be82U, 0x3e58aa74be0bcc91U,
  0x3eb1ccc13c083156U, 0x3e59d3d93e205682U, 0x3d3e46e03d723634U, 0x3ce6475bbd8f560cU,
  0xbd9512febb14f761U, 0xbd9434e9be2f2293U, 0xbb3604893d738b42U, 0xbdaa50783e2cb110U,
  0xbd47e5a8bde54791U, 0x3de3f5b23df220b2U, 0xbf36e8fc3ea7930aU, 0xbd30dd31be3571e9U,
  0xbd0bc0eebdf18311U, 0xbc73fd5ebd986f5fU, 0xbf49acdebfaa9a7fU, 0xbd741a9c3e353c99U,
  0xbfaca337bec6119eU, 0xbc4acd673f71d63dU, 0xbd99529d3d9ff5abU, 0xbbeaa0ecbd4535b5U,
  0x3c6956573d51c1a7U, 0xbd3e713fbba50f76U, 0xbc2d29cabd7d7dbeU, 0x3df2bd15be2d4b96U,
  0xbd9d05b8bd62d262U, 0xbc7c18013e18f022U, 0x3d2a2f0ebd7d1eb5U, 0xbd6704893cef4ab0U,
  0xbd5a53813d3c3abbU, 0x3c3c25ad3da1a2e3U, 0x3d60d1613cc68beeU, 0x3cba867f3dc4c9f7U,
  0x3e8d18043e52473fU, 0x3e8f4303bceee098U, 0xbee16c8c3e0f4196U, 0xbf5854ffbfb99863U,
  0xbda2539dbd573ea3U, 0x3cc59d6c3e40f9f2U, 0xbc2b7185bdb71587U, 0x3db0b7393e2fa2ffU,
  0xbc0a78e6bcb95f98U, 0xbac39dbb3d3152b4U, 0x3d53bbbfbe1b22d9U, 0xbdcdbf8e3d7f8aefU,
  0x3ec749b83df81929U, 0xbd34c0e1bd4ed3e7U, 0x3d5f78cc3e33f1abU, 0x3ebfa7c3bdf1c6e9U,
  0xbe31cc6b3d9d1002U, 0x3e8c2780bddc3557U, 0x3d38dd663eeba9a7U, 0x3e5a3471bf6f2a42U,
  0xbe24489c3e70d954U, 0x3ea5ec52bf59b894U, 0x3d9709f6be892ac6U, 0xbe03a3ad3d6aee32U,
  0xbdb0d2d9be2fabf8U, 0xbd3145963e81652eU, 0x3c9b928f3ef9f33dU, 0xbea217203eff0fdeU,
  0xbd70d4183d4e3910U, 0x3e17076c3e91d7a6U, 0xbda0ac92bcec15c4U, 0x3d1e8d4f3e1235dcU,
  0xbc6bc074bde2b4b4U, 0x3d3b4a8ebe121cbeU, 0xbc8365983d9529b4U, 0xbdbfcc48bd1a8b0cU,
  0xbdfd0488ba3c859fU, 0xbd9acca73f31eec6U, 0x3ddd93a3be8e3d28U, 0x3e39ea383e0211e1U,
  0xbede56943e209e44U, 0xbdf914303d6db854U, 0xbf96d7e1be9d475aU, 0xbd81bdfe3f4e4d89U,
  0x3de68d653d8fedb5U, 0xbd8b4054bdae52e3U, 0xbb71b930bdccb5dbU, 0xbcad10dabdd63a90U,
  0xbd4f2620bd0df411U, 0xbdfd9810bc04ce5aU, 0x3d5307623c72ef2fU, 0xbce4b9d1be5e6fcbU,
  0xbd1f16b53ddff4e5U, 0xbcec2b6cbdb80201U, 0x3da1e013bdf0b9c3U, 0xbdbb10053e10de86U,
  0xbd012ef43d531d27U, 0x3db1fe433d5d8267U, 0xbdae36153eb329b3U, 0x3ea9e7b5bebd1edcU,
  0xbe87bbc33c07949bU, 0xbf716ec8bf43cf79U, 0xbddd9d1fbe0b3b07U, 0x3e4985103dd49ca0U,
  0xbdaed920bdb36b95U, 0xba9e5a68bd2f54c8U, 0xbc0f58e53e1b0587U, 0xbe3079edbe2408dbU,
  0xbd83c42b3d0e5fb1U, 0xbed71169bc7631f4U, 0xbe9d3d163df94a57U, 0x3e641e2bbdc89386U,
  0xbdc85496bde921afU, 0x3e29ed7bbe91bb57U, 0x3e0df99bbd279f0fU, 0x3e5df021bd8b0879U,
  0x3dd726e0bef2a5f7U, 0xbf3d6f083ebd2f17U, 0x3e7d174abe917ea5U, 0xbef248353e0743f2U,
  0x3df45fcfbd8f9f88U, 0x3d5593923e54d60cU, 0x3e0a6ba73d6c0d51U, 0xbf02f8b83de828f3U,
  0x3e4a5db2be8037d7U, 0xbf038cc1be75eba8U, 0x3e6a65663ced206dU, 0x3d4488d2bd82dca4U,
  0xbe894718be4f670cU, 0x3da8ee72bd9bf23fU, 0xbca166ff3bc676a6U, 0xbd84c115bda23439U,
  0x3e4023e23e36d624U, 0xba0c70f6be8384ddU, 0x3f7edf17bf1ec23bU, 0xbe5ff0f03de8ff6cU,
  0x3ece2699bec9d7d0U, 0xbe284af13d0dbc7eU, 0x3f4f7a2e3fc4512fU, 0xbe7ae3d4be85d0d0U,
  0xbf47377fbe95d8abU, 0x3c1d12553f464ff7U, 0xbd450a16bd3eeff7U, 0xbd15d6efbd08acc3U,
  0x3d1dfefe3db55c0dU, 0x3c8f7ec4bce46d39U, 0xbc8f2ef1bd049fdeU, 0xbd419534bdb2caf2U,
  0xbcde12a8bcc02e3bU, 0xbbf0bf223c99f009U, 0x3c3c89c7bc849f61U, 0x3b493b0abd9a143bU,
  0x3cc7a4f13d9b845bU, 0xbd70e39bbb244e3fU, 0xbdaea953bbaa3691U, 0x3d31d0cc3be75335U,
  0x3e5f8a2cbe622ed4U, 0xbeec17e33be1138cU, 0xbe5d49c4bda2691bU, 0x3f2fcc96bf803ab7U,
  0xbe2386803c5f3a8dU, 0x3df39b2e3db0c20cU, 0x3d4130a8be2860c6U, 0x3cdd86aa3da8b576U,
  0x3e2df7a6be9d129dU, 0x3d6a311f3d9f3d32U, 0xbc03db233d7f5cb7U, 0xbd5a6ec53d9ed2bdU,
  0x3e293d223dfc8c51U, 0xbe1d2fdb3d3de168U, 0x3dff6bd4bd157c3dU, 0xbeb2f7b2bddf48fdU,
  0xbca2da98be62a8a3U, 0xbecbe0fb3e182d50U, 0x3e1006dcbe98128fU, 0x3dbcd97a3f246667U,
  0x3e2c3a77bf07a7c1U, 0x3d9123903f5711a1U, 0x3dce88f83ef6846bU, 0x3e6356543dc2cdbeU,
  0x3da1a8563d8bfc80U, 0x3f459aa6be94eecfU, 0xbe035d72bec21d02U, 0x3f7be338bf35f337U,
  0x3dcdcdd53df54220U, 0x3de437c4be60ecdeU, 0xbc9220c1bdee23dcU, 0x3c29c009bd16091aU,
  0xbdc8f61ebbbbf92fU, 0xbd31c929bdac24eeU, 0x3cc126903d1fd010U, 0x3d774a103d0ffb31U,
  0x3ed2d9ad3d437e28U, 0x3e40f3c0bf0c2acaU, 0x3cabe2403de85da5U, 0x3e7b4435beecbba2U,
  0xbf9a982cbfb49773U, 0x3e4434bdbe9c003bU, 0x3ef543923e8c3350U, 0xbe57b062bed2a534U,
  0xbc5cdb503da3d1d3U, 0xbccfa4643cf0591cU, 0x3d0f7173bb182e25U, 0xbc5f67f1bd4179eeU,
  0xbc0d50f0bdcaf378U, 0xbd8c11083d8b38d6U, 0x398f699d3cdf4692U, 0x3b64ce5e3d1ac4fbU,
  0x3c817c1a3d462c95U, 0xbdc1a809be06eb6aU, 0x3d0a6dfabc2614a8U, 0xbd0247673d29ec1bU,
  0xbd5975d03d25f0a2U, 0xbd403f6abcf9fb17U, 0x3dd10019bed62248U, 0x3e620a1c3ee2394bU,
  0x3ea0bf2cbd042640U, 0x3fe18a43bf02d77cU, 0xbd1e0f35ba8c7aaeU, 0xbde0ec633cde3924U,
  0x3d053dc73d81f329U, 0xbbf2427c3e4b0cdfU, 0x3cec56253df6c67cU, 0xbcb8a98e3dc4617fU,
  0xbd6d09d6be99e77bU, 0xbe1e04e43db8fb09U, 0xbd946e08be0b4cdbU, 0xbe956384bca191b2U,
  0x3e25eaacbd637fbfU, 0x3e56c588be2fc987U, 0x3dc69ec4bd5072c7U, 0x3e3ffcdfbe16f2fbU,
  0xbd934672be1fe258U, 0xbe9694453c46e1d9U, 0x3e006adfbe59722eU, 0xbe30daa43decb50bU,
  0xbcaf10abbd0eea48U, 0x3c590a523ea17b2eU, 0xbae741d53e34e112U, 0x3dc1a7cebd2f1808U,
  0x3e7f4b903e7412ebU, 0xbe94d474be799568U, 0x3e0031eebe12f3dfU, 0x3c77c8e2bdc7ec2cU,
  0xbe5a914f3d8e4500U, 0xbd8ac022be68ad09U, 0x3e1c39b4bd655db3U, 0xbd627a3c3e819c75U,
  0xbdca6209bdc2ec7cU, 0x3e2891fc3ed07931U, 0x3d773cdf3e619b07U, 0xbf31fc24beaf4200U,
  0x3d3446433dd4225dU, 0x3e8e9d08bde1f881U, 0xbf263a2cbf8b853dU, 0xbe90976cbea06db3U,
  0x3ec026983e9f8c05U, 0x3de3cec5bf2fe548U, 0xbb652ceabe57ebb4U, 0xbdbc55d8be1bcb23U,
  0xbd1afab2bd074b71U, 0xbdd67ae4bd852fedU, 0x3d514d783da248fdU, 0x3d7b7b57be1aa6fbU,
  0xbb56af4fbddf6565U, 0x3ddb657fbd3d8aebU, 0x3d45b49f3c99c5e5U, 0x3c9f59a73e2e17b3U,
  0xbe1e93aebdf8ef3aU, 0x3d283bd13c8f4312U, 0xbe08d240bd6cfd89U, 0x3e0308c13da407faU,
  0x3dc7037e3ddf6510U, 0x3de2ef103ed8eb8eU, 0x3e717b733e070c44U, 0x3e2408183e870509U,
  0x3e536b733e3cde32U, 0x3e2592b9be323d8fU, 0x3de04f9b3e2ffce0U, 0x3c657b07bec280c8U,
  0x3ca95c403dc8f145U, 0x3c2e227b3d7e5b7aU, 0x3d524ee6bd8f9d42U, 0xbd95cde43e109948U,
  0xbe7d805a3e8140aeU, 0xbc98f597bc965d99U, 0xbdd750163c47dc23U, 0xbda801acbdf46ba2U,
  0xbdbc48063dffd154U, 0xbe11108f3e31188eU, 0x3e566a85bcfbc605U, 0xbdc55ddd3f08c2f5U,
  0x3e9d07153dae862cU, 0xbe97099f3ef42c2cU, 0xbdd5759c3e0f6e7cU, 0xbbc7cec63e7e5f5fU,
  0x3d23ed44be48a0c0U, 0x3e2f8c7b3e1bbbe2U, 0xbdb30261be9b0e2aU, 0x3df1fd6ebf001d3aU,
  0x3d700bd2be94c11cU, 0x3e12cd0f3e6c18b8U, 0x3cbc41e0be2037f7U, 0xbdf881e83d8b33c8U,
  0x3c588f71be866975U, 0xbe263760bb1ea2e1U, 0xbda4a51d3d221804U, 0x3deca34b3d824310U,
  0x3d14ca3abdf7a60aU, 0xbeb9efaa3dc22ac2U, 0x3d7f97a43f0f9818U, 0x3dc981813e51ce38U,
  0x3f367f683f8d257cU, 0x3daac1ec3e52437dU, 0xbcbcc1babe2838e9U, 0xbdecd9ecbe86d9feU,
  0x3da260703e1772c9U, 0x3e21c4013a3ecd5cU, 0xbe8d2b9ebec127b6U, 0x3ea0e5303dba9444U,
  0xbe1148da3db9b375U, 0x3ea2452bbf0114a2U, 0x3da1b5ee3dfb24a1U, 0xbeaf4550be4ad0ffU,
  0x3bed3474bccd48eaU, 0xbc94e95e3e09b75bU, 0xbdceddb23e0c463fU, 0x3e0c7711bde5362aU,
  0xbdeab200be466064U, 0x3e0e59383e484b8dU, 0x3db742d1bdb9d708U, 0xbdb288cc3f029646U,
  0x3db0a309be7ed231U, 0x3e2c80593e909da8U, 0x3e528990be8248edU, 0x3e2474bebcb82fc4U,
  0x3d1bb80c3b80b2aeU, 0x3dca850fbe8042edU, 0x3e50afe1bd5a78c7U, 0x3bed4d723e1e35daU,
  0xbd91ef9fbe458f88U, 0x3cfc45c83e815f66U, 0x3e2e3c0e3e89f49fU, 0x3e8460c53e1db717U,
  0xbde70142bd178e28U, 0xbe45cb45be95a120U, 0xbe3625c23e0641e2U, 0x3d83b6bebe256ec8U,
  0xbe2ce14cbeb08f1eU, 0xbe730e09bec3c198U, 0xbca9155dbd379cc0U, 0xbe9bbd53beda8fbcU,
  0x3d4026b7be64a5adU, 0xbe2d9c973e90f7d5U, 0xbdf77c0c3d9d113dU, 0x3da05e733e2f42b6U,
  0xbe2c5f703eea8512U, 0x3d784828bebb3f5cU, 0xbd64e6e63de1985bU, 0x3dde2df13e82a352U,
  0xbe27606d3d94d643U, 0xbd202aa13e504645U, 0x3cdd9e45bd7c96f3U, 0xbdb42a143becaf59U,
  0x3e11c73e3e0072baU, 0xbeeda5f9beb61ea9U, 0x3f1850f6bf7c8f68U, 0x3e24f791bdb27f54U,
  0x3e13146abf33f960U, 0x3bc66eb23e8a299eU, 0x3ebe6d2c3fa97477U, 0x3d6512a63e359c07U,
  0x3e6b7f9dbe897c6dU, 0xbda8fe913ed414bfU, 0x3e21d43abd540154U, 0xbe5645523e0f1489U,
  0xbda88015bd0376e1U, 0xbaf79d87bd4ebe89U, 0xbc3a9999bad41b34U, 0x3d1783edbb6a2c7dU,
  0xbc27feb73cca7194U, 0x3cf522d2bddbbab4U, 0x3dd4c780bbae4c02U, 0x3e149d97bcd7b626U,
  0xbc4bfee9bd44eee9U, 0x3d6bf965bd10acc0U, 0xbdf66376bd5abb8bU, 0xbd91662a3c383fa8U,
  0xbe652435bde002e0U, 0xbe6e8af1be49b970U, 0xbe04242ebe0b4ff6U, 0x3fb84331bef11ccaU,
  0x3d394bd0be0237b2U, 0xbe9714be3d88aaf2U, 0x3df541b93d298993U, 0x3cc01ff9bc914fd9U,
  0xbbe08d2c3d7e65ceU, 0x3e0c1050bdaba4daU, 0xbbb845d8bdc7f5f2U, 0xbe66f83cbcc1cd1cU,
  0x3df7c59fbf83afc7U, 0xbc5c71ef3da7cf7bU, 0xbe0ad0a03e0b2809U, 0x3d62d9173dff0e45U,
  0xbe42cb11be448943U, 0xbd007b7c3e0aca4cU, 0x3e145834bdb345e9U, 0x3dee9bcd3d2d63fbU,
  0xbd739400be10c61fU, 0x3d05bef03dab83acU, 0x3e7631fb3e7b4f5aU, 0xbddda190bde4b013U,
  0xbde53a8a3da66f15U, 0xbdfd035dbd590b48U, 0x3cf7bb4cbeb72135U, 0xbe4bbcd8bc571d72U,
  0x3d77a9f03e5cbc00U, 0xbdb57050bd42a572U, 0x3da295babd7a602dU, 0x3cabc7f03e38eb58U,
  0xbc332bb13b8d8d99U, 0x3d011178bc13f2f3U, 0x3dbca26cbd6b8c74U, 0xbe5028f6bf140bd5U,
  0xbf2f391c3f161a65U, 0xbe85c4293db2af20U, 0xbe3c12fa3edc7dcaU, 0xbd57b67e3dd4712cU,
  0x3fedf44a3fa2b541U, 0xbe06a5e13e242cabU, 0x3e2256923e31644dU, 0x3ca01f063ce1dcd2U,
  0xbdeba07dbdee577bU, 0xbc18c157bdc714f0U, 0x3dd01da0bdd25a81U, 0xbc3049123c8f8828U,
  0x3cef5a8bbd0ba040U, 0x3dc5ef4d3d321b06U, 0xbc97e3d63c959fd0U, 0xbcf96e183dbc1b22U,
  0x3d48cfac3cd70b86U, 0x3d561be8bd9b37f6U, 0x3dc4a35ebd825edfU, 0x3dc1bd4abd8558b1U,
  0x3c709e9c3d06fb91U, 0xbd7a3d1c3dcf2cb0U, 0xbe82855dbafd5226U, 0xbeae070abe9843f7U,
  0xbe97b45cbecfd620U, 0xbfec34493ebd96d5U, 0xbdfbc3a33bab9d41U, 0xbe3862fcbd18eea0U,
  0x3c78822f3d61e75dU, 0xbc9c05133db5224fU, 0xbe86e2e83c5e06fbU, 0x3e0801743c9cbda4U,
  0xbd2a1ebebe369caaU, 0xbea00bf0bdaeefecU, 0x3f1410603da41ba2U, 0xbd8e9ec23d08b027U,
  0xbd54f35e3e5cd56cU, 0x3e4aee14be347d67U, 0xbd9b3e57bdc21437U, 0x3e2f4e4ebcb3f453U,
  0xbe163043be6549c4U, 0xbebbad7a3ecf7c35U, 0x3ad09e1fbd752799U, 0xbf1f64c03e814870U,
  0xbe4620133e3c4d3cU, 0xbcc183033e16bed5U, 0x3dd95e81bddd3fbeU, 0xbdc73f9cbe2f9f2bU,
  0xbe495df83d1b776aU, 0xbc094b8fbeaf5248U, 0x3d1539b0bd324480U, 0xbe385392bead718eU,
  0x3e123b94bc96f6daU, 0x3d9bc1c13d4137c8U, 0xbdaf40d4bd9d88f8U, 0x3d45860cbe79bbd8U,
  0xbd1dc5acbe0a21f0U, 0xbc44275b3d836c13U, 0xbe0dd6f93e0a68b8U, 0xbf455911be2e5d2dU,
  0xbd11b2c93e9629d5U, 0xbe1a52533bb25855U, 0x3fc873e23fc7786fU, 0xbed03233be0099caU,
  0x3eb294c6bd9ecd00U, 0xbe203fe2bedce2d7U, 0x3cea8a5f3e1d76edU, 0xbcb9a9813e0b83acU,
  0xbd9e5289be060040U, 0x3ca805253b50af70U, 0xbc7a152cbd70b463U, 0x3d1fccdfbe24be16U,
  0x3d8670b93d6afce6U, 0xbd902c6cbd59ad4aU, 0x3dc07469bdc7dd5dU, 0xbd7805043d5feaa1U,
  0x3d5775b2bde6dc26U, 0x3cf8c8443db9198cU, 0xbccf03843df66dc7U, 0x39822c7bbdcca17eU,
  0xbe319f4a3d3081ccU, 0xbea452dcbd5c6a4eU, 0x3e6b32d53dc85aefU, 0xbf6d3d593f5da413U,
  0xbd1118063e083829U, 0x3d8910b1be800280U, 0xbc6fb182bd8a1ec9U, 0x3dda87a7bf1d1386U,
  0xbdf6923b3d574bf3U, 0x3d994b583e637d84U, 0x3d7729a2be14c879U, 0x3e8e0336bda49a52U,
  0xbea139773ea7b638U, 0xbe958e9abd054625U, 0x3e01173ebe1a78e3U, 0x3e67f9a2bd8631e1U,
  0x3c7cec94bd97fbdeU, 0x3e7963d13e058850U, 0xbe3646fd3dbd8c97U, 0xbf618c28bf1d782fU,
  0x3d43c6d43e75e07eU, 0xbf341a32bf1cdb61U, 0xbd2657e83e17c12aU, 0xbe5407cfbe33d4a2U,
  0xbe504c04bd9c3b56U, 0xbf2a4a5f3ea0fdbdU, 0xbd9271db3b0100daU, 0xbf35ad0f3f230660U,
  0xbc70bbf63dc2213aU, 0xbd24c3b33de868b3U, 0xbb5e7ea1bca096ecU, 0x3e5278c43e19531cU,
  0x3c8a765ebcfb45c5U, 0xbda864e3bdb57e29U, 0x3cbd0e70bd47dd98U, 0xbbad789e3e18b380U,
  0x3eafe0b5bed1445cU, 0xbf34ab773ea1e92aU, 0x3e96f751be77469aU, 0xbee0e19a3eca8030U,
  0xbf09b313bf510be5U, 0xbeaad23d3f1fd08fU, 0x3e03313f3e72001bU, 0x3e3cab50be898c5dU,
  0xbd9268b8bc81521dU, 0x3d8e1827bd1d4286U, 0xbd4b945dbdc5b871U, 0xbcc6ec9b3c2c8182U,
  0xbdea8b013e0d4c8aU, 0xbdab9aa3bd61e950U, 0xbc4dbb3cbcc0be98U, 0x3c23e666be31882aU,
  0x3dba1183bcd9e553U, 0xbdaacda6be0a6369U, 0xbdb12f7b3dd2ac2dU, 0x3d9958b73b327f63U,
  0xbc26bff6bd46820fU, 0xbcfd120dbdf8aac2U, 0xbbf1e6533e91e961U, 0xbdbd88a33ea88725U,
  0x3e750e23be7c42f7U, 0x3f24a38a3eb06eeeU, 0xbdf9f87e3d0d13a2U, 0x3e11169fbea33ff2U,
  0x3d523878bc3d6ef6U, 0x3e091b343d8da523U, 0xbd4baf84bd6f3914U, 0x3c60dfdcbdb740afU,
  0xbe4a2d91bdd4d97bU, 0x3eec3b643e2731f4U, 0xbe721b89bf32a703U, 0x3e3dd2e8bc8dce00U,
  0xbf3409fa3ecbdf0eU, 0xbda33c323f170b73U, 0xbe36e2953e692e48U, 0xbda44a2cbe964e8fU,
  0x3eeb556e3d61e61dU, 0x3daf75f53d9b4485U, 0x3eed0aea3e19df85U, 0x3e8e9921bf027a97U,
  0xbf1cc7eabf51a06bU, 0x3f099ea73ebad764U, 0x3f300596beeff251U, 0x3d3fc4a4bec63792U,
  0xbe2084ad3d9a4fd0U, 0xbe1f1de6bf4e9618U, 0x3f01bd8a3ec90ea4U, 0xbdf5f640bcef4351U,
  0xbc9e309bbdd7192dU, 0x3e28e0823e22ca88U, 0xbe1dcde33e7d57c0U, 0x3e94bf0d3d853a85U,
  0x3bf8ff063ebc40dbU, 0xbe3d69b5be94ba0cU, 0x3e9ace073ed9a7a9U, 0x3e251314be179d1dU,
  0x3f8451553c0b9058U, 0x3e5d45813e1cfdc3U, 0xbd8412d13e10811dU, 0x3eb1ccb53ee2109dU,
  0x3e0e00d33da7384fU, 0xbe010a673e4ba869U, 0x3e6acad83e302450U, 0x3a8faf643db4274cU,
  0x3d788610be29f6fcU, 0x3d7c2f233e9271dfU, 0xba53a390be341ad6U, 0x3e40f7f5be7a0ffaU,
  0xbd3a67013db6459fU, 0x3eadcb413e54193aU, 0x3dd754673d1d1e22U, 0xbd8b46833e72ad5cU,
  0x3e3c5f68bc6a8619U, 0xbe6a53673e9c5cffU, 0x3cd30ebabe0feb4bU, 0x3eaab2473e0f1576U,
  0x3d665b8a3afc18c5U, 0xbe3996203dc786f2U, 0x3bc2ba733e452c41U, 0xbe58d22abd0c574eU,
  0xbe912ab4be02fef7U, 0xbefbdf17be2bd746U, 0x3e6ba7a6be816f43U, 0xbca8371ebe939eb1U,
  0x3f0b08753ee0ffdcU, 0xbf012d2b3da41cabU, 0x3ef516aa3e4d41daU, 0x3daa28a8bd6bbbd2U,
  0x3dfe4c9b3deaa531U, 0x3b8784363de1a432U, 0xbe045ab73d375d98U, 0x3ed24229bdc478bbU,
  0x3dc264243d0c3286U, 0x3d300cf53dee0f0cU, 0x3e4e862f3de1e056U, 0x3eafe8ecbd2ed1bbU,
  0x3e118e773dc8d4e8U, 0x3bae106abc7cbda2U, 0x3e7b92e23e1b17b4U, 0x3e012c81bcf10070U,
  0xbe03f7e73e64737fU, 0xbc5ed3b2be92b035U, 0x3d6323d5bdabdc30U, 0xbe04fdadbe3a9620U,
  0xbda24b5cbeb3e779U, 0x3e54e5203d8b99b6U, 0xbe427c4dbd9e37dcU, 0x3d9e7aa0bd33a61fU,
  0xbe893d77bea0421dU, 0xbef9b366bd9847b8U, 0xbed2ddefbf24432eU, 0xbe16dac43bac55dfU,
  0xbf033795bf0e7b2dU, 0xbdc88b313d858a58U, 0xbd30b3d2bd9e0a4aU, 0xbe18f69ebd716cc2U,
  0xbe1683a13c029310U, 0x3e22289b3d0ca8a7U, 0x3db2eab3bdbc468dU, 0x3e7143d23dd36971U,
  0xbdcd6fa93dc08989U, 0xbd81b6b13e619e62U, 0xbea4c015bdbc70faU, 0xbd9f35c43d546f96U,
  0x3c8f25a03e28e582U, 0xbda0e70bbd5008b3U, 0x3e739e8b3dd39db1U, 0x3e58681dbe53a4feU,
  0xbe49f2febdad97e4U, 0x3d969ba33e5f0c1fU, 0x3df9ea283f084e7cU, 0xbd9ea48abe9c4777U,
  0x3f68126bbe123a33U, 0x3def80f4be69d07dU, 0xbd39bad1be8efb5bU, 0x3d77cae8bc01215bU,
  0x3eaa07d73e2db572U, 0x3d33e03c3ea00f3eU, 0x3e3817173d733d2fU, 0x3e16b67e3add1b96U,
  0xbeb7d5edbe064f04U, 0x3e65d530be9c821cU, 0x3ee5d5f33e642fefU, 0x3e2fc28d3d131d4fU,
  0xbe426c79bdd972e9U, 0xbbfeef51be5a3f4cU, 0x3e883c923c998f90U, 0x3d93c07abd5ad140U,
  0xbd9d5af1bdb18ba4U, 0x3e724ffcbe484799U, 0xbd24ed183e9db00dU, 0x3e7f94343e63d12dU,
  0xbd6fb71cbda958a1U, 0x3ea211c93e2bcba5U, 0x3e50b512bd994114U, 0x3df6bc8c3db3df20U,
  0x3d9d29643ec75901U, 0xbea52702bd66ec53U, 0x3f0e9bbd3e0a1f3fU, 0xbe65b5443d177659U,
  0x3f91f401be445200U, 0xbc8f0f243ec8252aU, 0xbd8b9b25bd3c59aeU, 0xbea321913ea7055dU,
  0x3e4fd877beacbb14U, 0xbd92ad43bd98ff8cU, 0xbe86c1e53d73a32bU, 0x3e0d75f1bbc8d6bbU,
  0xbdeb067d3e04f6a0U, 0xbe89b5193d780042U, 0x3d7e4ee0bdc9462cU, 0xbd99c37bbd3f4b97U,
  0x3e205cd9bdbedd80U, 0x3de092fcbdc1896aU, 0x3b9cca153e1ad2d9U, 0xbe857b28bdb3f38dU,
  0x3edabcc4bd233ffcU, 0x3dc7d5fe3dfb1178U, 0x3d078e693c04faaaU, 0x3e864d1c3e9678a0U,
  0x3e1bf6d93da3c7d9U, 0xbe19d16c3e662c0eU, 0xbdc140533ee2cc74U, 0xbd87eb98bd3c5264U,
  0xbc8e65f6bda79410U, 0xbe008409be3a0815U, 0x3fa790663eb36b03U, 0xbcfbc92e3d7a77e2U,
  0x3eb0f8ea3ec33e05U, 0xbcce51fdbe743dd3U, 0x3e9e81693c3252c8U, 0xbe1651373dfdd137U,
  0xbb85e231bd1cb263U, 0x3e82c2fcbda0c6d4U, 0xbd688407be11fce3U, 0x3e8fb08fbd2464cdU,
  0xbe9a36383cd8148cU, 0xbe7e56ce3dc087c1U, 0xbd538c523d4a253cU, 0x3e2d451b3d0d62e6U,
  0x3db714f4be543f70U, 0x3d8cf8143def3683U, 0x3d1f61493ca286beU, 0x3ecce7ccbdbfb8d0U,
  0xbe3f94b73c31f653U, 0x3db0d8233d8f9c4dU, 0x3e3e989a3d430308U, 0x3e247aa53e39abb6U,
  0xbdfdd1b23e2d2bd4U, 0xbe7d15abbe1dd2fdU, 0x3d4c1ecc3caeb8e0U, 0xbe498885bdb82c22U,
  0x3ee1a486bd42ec93U, 0x3e6d8ccebe062054U, 0xbe84508c3eb440a6U, 0xbe2d72b33e0d8d5bU,
  0x3e568dde3e2076e6U, 0xbddec82fbdd4fda9U, 0x3dfc1602be21c9abU, 0x3dd4864c3d037bf2U,
  0xbd5705f23d40e3c8U, 0x3d09ed8bbdea10c8U, 0x3daf385b3e70c84aU, 0xbe919a02bde646f5U,
  0xbd574a4b3dfa5998U, 0xbeddf6fbbe2fbdaaU, 0xbe058f30be8634cbU, 0x3b8652ddbde072a9U,
  0xbe026b7bbe703dffU, 0x3d17038b3d1dfaf1U, 0x3c74590f3e6e8bfbU, 0xbe659884be2e084bU,
  0x3e9352e73e81e9ebU, 0x3e286328bd40da82U, 0x3e183e513f12f0fdU, 0xbe3f57fa3ce578aaU,
  0x3ea66ecdbe648a61U, 0x3e764f023e3b2fcdU, 0x3fbdd6213f782d0aU, 0xbcbe10cd3b28dd20U,
  0xbd654f2cbdbedfb0U, 0xbda891813d97bf21U, 0x3f1d93873edb06dcU, 0x3e35ef6d3e178dceU,
  0x3ea74835be0063c1U, 0x3d45f4ecbca944c3U, 0x3d5cf8e63da4f21eU, 0x3ed51c283ce60f9cU,
  0x3dc73336be0ce075U, 0x3e5a6aeb3dcec257U, 0xbdbdd61cbe18cd45U, 0x3de271923e8b0c41U,
  0x3ea261a13e2dff38U, 0xbec740823ebda158U, 0x3e4f0108becf6ef3U, 0xbd92c0383e3998d6U,
  0x3e5fa10f3e0021b9U, 0xbe219c303e0fb7c0U, 0x3e1c32d93dc33db6U, 0x3da5a680bbe0ebaeU,
  0x3d99b38abdc7b77aU, 0xbcf723513da44ee2U, 0x3e4fd7b6bd6475a5U, 0x3e82a18f3dde4114U,
  0x3e396a6dbda06e44U, 0xbe97f963bcbe68d2U, 0x3e75a0c7be322225U, 0xbca68faebcabd5cbU,
  0x3e398befbe2f38a7U, 0xbdac40853d1a6112U, 0xbd1802e43e0959f7U, 0xbdffa69fbdf1f3eeU,
  0xbe43a8e93da81e9dU, 0xbe1c1988be201c6bU, 0x3e05bb58be324a73U, 0xbb3f45a63e552ab8U,
  0x3e79ed0f3db74cd9U, 0x3e3672c5bda1acb2U, 0x3e98cf6abd991ac1U, 0x3edd7c373d47324aU,
  0x3ebb9602bdecc0baU, 0x3f0b837d3e8e5871U, 0x3e26e9d6bea46c1eU, 0xbbe95590bc29ca17U,
  0xbd52f8e1be9da0b2U, 0x3e3798ccbd9babbbU, 0xbca21ba5be683078U, 0x3d5dc2d43cf4701dU,
  0x3e352ebd3e2d3f71U, 0x3e7aad9fbe313317U, 0x3e4331dbbdf08f09U, 0x3d8996083d1687d1U,
  0xbdb2d296bebf57beU, 0x3e2d888e3df21b43U, 0xbce7afda3e36c51dU, 0x3e73647b3e50eb3aU,
  0xbe01bc9c3ebdbdc4U, 0xbdb0794d3e762517U, 0xbe8b46dcbe6ea791U, 0xbf41b662be5605b9U,
  0x3e092aa53d0d9e29U, 0x3d172d21bdcf7c1eU, 0xbd0d29b43e542f1bU, 0x3b55855b3e9eb23aU,
  0xbe7e62a13e8715b1U, 0xbd2349c8bd8ec872U, 0xbe9030a2be31e9b4U, 0xbe9a7e373da7b064U,
  0xbe23878abda3fc55U, 0xbe2dcadebbed3236U, 0x3c6ff4b8bdd9eb8eU, 0xbe070fb1bdef721dU,
  0x3ec643aa3e6f0559U, 0xbe90a700be17da4eU, 0x3c0a7edc3d21d72aU, 0xbdabbdeebe1c8608U,
  0x3e319cb83da89b90U, 0x3e874a083e9ab59aU, 0xbe08b9973e7edd4dU, 0x3db5d6913ef577dbU,
  0xbdd31b713e81503eU, 0xbdc42f053e3a9c8aU, 0x3d7ed1a13e2c83f4U, 0x3c1d9362bcdc12b6U,
  0xbdb57a82bde76096U, 0x3ca26cd7bdeb46f1U, 0x3dab78953e102b5aU, 0xbd8168debda876bdU,
  0xbe1240bf3e3bc4e3U, 0xbd54f019bdf55c7fU, 0x3e9f6f80be1dcadcU, 0xbdbb36c93e08f556U,
  0xbe291f043d9f7bbeU, 0x3ccdee403ce3ecc6U, 0x3e082fdb3ea8d385U, 0xbebdd590beeb594fU,
  0x3ea5af293df7ac0fU, 0x3c2a44723e9717e2U, 0x3c6119783ddd6b24U, 0x3e8aba5dbe00eb99U,
  0xbe889822be62207bU, 0x3d8429f33e283099U, 0x3e8ac7073ecb3e41U, 0xbe0367f73e763482U,
  0xbdaf048f3d8a1539U, 0x3e8ad3523ed4c725U, 0xbd5c49483ecb1d26U, 0xbe8a0a92bea4fa51U,
  0xbe17a0d5beb82197U, 0x3edb0e6abf1997e3U, 0xbd48818e3e86e8d0U, 0x3d8b9e293e6a1924U,
  0x3c6e52033df37b11U, 0xbec2cb6ebe60560cU, 0x3e4e851d3e4a998eU, 0x3de00f483f0168c6U,
  0xbdaede68be582c50U, 0xbe8db0793e9bcca3U, 0x3e15a666bdc8c294U, 0xbd3839483e024347U,
  0xbdd9f6edbe5e92e3U, 0xbd7b5dd43dab4aabU, 0xbc6feb28ba16a81aU, 0x3d9bb3d83e8660f2U,
  0xbe2c713f3dcda392U, 0xbe491ddfbe22e431U, 0x3e1d9e2f3d4c1e30U, 0x3c8ae15dbdd01ea6U,
  0x3e6438f63e1ed0faU, 0xbe89729d3d4643f1U, 0xbd273c4f3ea20fe0U, 0xbeba3b893e09dd0fU,
  0x3d5224e33ed80378U, 0x3de8713dbb031fcdU, 0x3dc54a08be0caa70U, 0x3dce72933dabcf9aU,
  0xbe143cd2bbcf794dU, 0xbe355b78bd69f16dU, 0xbdb3c5653d93cbb7U, 0x3e2af0bebdf12c24U,
  0xbd250ad93dec9180U, 0x3ebc1589bd4b102fU, 0xbab25f4c3cad43e9U, 0xbe80be423e9a9c26U,
  0x3df471d53e5907a7U, 0x3c36ca66bd296737U, 0x3d9773053d6c958fU, 0xbe8241c63c980ff6U,
  0x3d193886bdefe850U, 0xbdf78ec93d8203b3U, 0xbcc5dd5cbe289224U, 0xbe012e0cbd8899e9U,
  0xbea86807bd93f5a5U, 0xbe211f303d3210a7U, 0x3da03a4e3e0529beU, 0xbcc1be443e0c66d8U,
  0x3d04c63a3db6698cU, 0x3d4a31ca3d0af9a4U, 0xbd137fbe3ea0de53U, 0xbe8ddcd8be8152d7U,
  0x3e094c87bebb6ba7U, 0xbe05e582bd8494cbU, 0x3d9bc1863d1f948dU, 0x3ef4a15b3e917a55U,
  0xbee29012be868e17U, 0xbe7539aabdb37ee7U, 0xbe0fb9a2be4a9430U, 0xbb9ca464beb130ceU,
  0xbdddbacabe0649dcU, 0xbe1dfdd23dc890edU, 0xbed7449f3de402fdU, 0xbe422491bc29b566U,
  0xbdab49cebd40ae84U, 0x3e0bbf423e59b687U, 0x3db909813e149a35U, 0x3e2b9b2bbe4457f6U,
  0xbc83d5133d8e4585U, 0xbd3091e3bdf6b572U, 0xbd4ec846be93ee87U, 0x3e08963ebe144e0eU,
  0xbdca97a2bd88f7c3U, 0x3dd691ee3e333c0eU, 0x3ec39a7e3e465ef5U, 0xbcbe600a3dda022bU,
  0xbc0575083dcb4593U, 0xbd0f4bef3c9f981aU, 0x3e97fb72bc5227bdU, 0x3d5274ea3cbac31bU,
  0x3bab5caabd98245eU, 0x3d07e0853d159ca0U, 0xbd8d8072bdf3b78cU, 0x3d49e6f33d0d0e61U,
  0xbd43dc9bbe2df06aU, 0xbd2a0dac3dc23b19U, 0x3ccb08a33c8cd8e1U, 0x3c95d9ea3d77291dU,
  0x3de899a8bb2e71efU, 0xbc8879c9be20c295U, 0xbe272159be9dcb0cU, 0x3f029bf53f27a864U,
  0xbe9ab236bee99fa2U, 0x3e25da2dbe334919U, 0x3ece0604be809ce1U, 0x3dc3c68cbe8fb317U,
  0xbef172843c967fdfU, 0xbe03e9a6bba06ee6U, 0xbedc759c3d96a6c6U, 0xbdd961263e9811e2U,
  0xbb908a8ebe78d00dU, 0xbda93799be0830cbU, 0xbcc2717dbd87d4bdU, 0xbeb9c9afbe255c63U,
  0xbe60cd54bd9b412bU, 0x3eaa1f7cbf3ed4c5U, 0x3c7f155b3e9502faU, 0x3fb42c993da482e2U,
  0xbca5c3763c65f257U, 0xbe93e7b5be37f520U, 0xbd7da7343daacc87U, 0xbe98b8b23d000fa3U,
  0xbe2b40b4bd0927feU, 0xbe60c33fbdde4b03U, 0x3e74bdd63e9fba26U, 0x3dc803b03cc6338aU,
  0x3e8c54b1be032aa0U, 0xbcc93fcb3c15683cU, 0x3d43965cbe87a9d8U, 0xbe18aec03e4b5d03U,
  0xbc1d82d3bde620d9U, 0x3e2f0a9c3e49fdb4U, 0xbd94892cbef3f2c5U, 0xbdc60803bd930a1cU,
  0xbed3d51ebea9b9c4U, 0xba2c9fee3ddd4e0bU, 0x3ec80cd43d6f01d8U, 0x3e4018d3bef144d0U,
  0x3e2c3ffcbcd9b15cU, 0xba3b44633e0572a3U, 0x3e418fbf3d168589U, 0x3e565a16bd16a16eU,
  0x3e11f37cbd32b073U, 0x3e196c81bcc7b17dU, 0xbdc027973e0861a5U, 0xbe03b6b53d25610dU,
  0xbd9d82fdbe213378U, 0xbdf7726f3e5205b4U, 0xbd9bb89cbdf0cdceU, 0x3d8c4eef3e910c7cU,
  0x3e8ffe573dbaea8eU, 0x3d6ca7e7bda1189fU, 0x3d025b67be01f8abU, 0x3e660a6a386e856cU,
  0xbdf2d15d3ee470acU, 0x3e9161c9bd5eb1afU, 0xbeb11c073f630493U, 0xbe4dbabbbe606e20U,
  0x3f56e5fa3ea3dbb9U, 0xbe728ad0be8b64d8U, 0x3e990f6bbe1b5123U, 0xbde29e98bd3ba952U,
  0x3e2089443e9f22c9U, 0xbd8a90ecbe58fcb8U, 0x3d22249f3d6484e9U, 0x3da26c1dbe415b5fU,
  0x3e98fe613e4c1488U, 0xbe9ff2a63e839620U, 0xbdb89ff03d77b45eU, 0x3e8b204c3ea38df7U,
  0xbe358c80bdafe56aU, 0xbdc6624fbe545061U, 0xbdce50f6be59c080U, 0x3d55ff543e1023a9U,
  0xbde6e0f1bd2a6c6cU, 0x3ef5a5353e234089U, 0xbe24d349bdb01d3fU, 0x3ea82c67bc5da022U,
  0x3e0877243c781546U, 0x3e4f03b93d12d22cU, 0xbd7e8f5a3ec6a998U, 0x3e615805bd9dd00bU,
  0xbee5cdee3e99c239U, 0x3cd43389be2472d1U, 0x3d8accc2bcb7454cU, 0xbe04c88ebed4588dU,
  0x3eade76c3dcdfd35U, 0x3ef0f922bc98ccb6U, 0xbd8ddeed3cd27d82U, 0x3f1e47e5be896e17U,
  0x3e262d4cbe6a2c7dU, 0x3e70c2613e3f6f68U, 0x3df3c47bbc2a95c5U, 0xbd803cbf3e109b6fU,
  0x3df9718b3d87469eU, 0xbe7081483e3b3519U, 0xbd0aeef6be26d41bU, 0x3dd47653bded783dU,
  0xbaa4a060bde9d79aU, 0x3d20d5b1be2c0ef8U, 0x3e31a3ebbd33fe30U, 0x3d71b7053e5b3e68U,
  0x3dc6bfbbb9a681c0U, 0x3de4777fbd96bd35U, 0x3db20cd4becae689U, 0x3eb6d49b3ede0b10U,
  0xbf1dc2f8be173dd9U, 0x3d2bedf53e983b50U, 0x3f49fc90bdc576d4U, 0xbe14aaf9bdf57d89U,
  0x3ded63c1bc82279eU, 0xbe2ac806be6e925dU, 0x3d25baadbe92eb46U, 0xbe4c0ca83e6ffe9dU,
  0x3ddd74b03e26d312U, 0xbd04bfa5be82aa75U, 0x3ec9b5783dee9e2eU, 0x3e8f5e54bcad3085U,
  0xbe42a7303e35a7edU, 0xbe70ad613ee03a8aU, 0xbe12b2803d44364dU, 0x3e5b87fcbe26c18cU,
  0x3e097d793c80d1e4U, 0xbe0fbcfabe293fdfU, 0x3d17b3adbd3c8881U, 0xbdc20c833c9707f4U,
  0x3e3257abbe7d2837U, 0xbdfaebf0be8d64a3U, 0xbc3b8a323e3fd8dfU, 0xbe72a4473e802453U,
  0x3dfbdf703c4bc6fcU, 0x3e52097abd6ade64U, 0x3e3199c13e808614U, 0x3d7aeef63e567665U,
  0xbe869bc93df7d6c8U, 0xbda188edbe9df734U, 0x3f1426ffbe0314c3U, 0xbe7c8f2f3bdec625U,
  0x3f3b057b3d8393f0U, 0x3d894f11bc0a5b28U, 0x3ebc0ac63e1ea531U, 0x3d19eabc3ca38f2eU,
  0x3e9d7de63e14b2c9U, 0x3e3dacc33e00c046U, 0xbd7098df3e175a2aU, 0xbd6e3843bc96906bU,
  0x3cd53249be2fad2fU, 0xbcc4b8853e97e2aaU, 0xbdf2df76be1c82b5U, 0xbe447b99bd105bfaU,
  0x3e8ad75ebdf6a68dU, 0x3e7b49a33d9d14ccU, 0xbedfa64abe2a240bU, 0xbe0e4bf4be0d1de6U,
  0x3e8fadf13e37d346U, 0xbbfe4b533cdd7674U, 0xbda1c4e5bf40597fU, 0x3ec45ab23f174351U,
  0xbf3ac607be311301U, 0xbe83ebdbbe54f83aU, 0x3e5041f33dc83b69U, 0xbb8d3815bddc3097U,
  0x3e5d09cc3e53419bU, 0x3d8aee67beb868fbU, 0x3d91d816bdadff95U, 0xbccda6d1bd827755U,
  0xbeb45c50bda56343U, 0xbe4a7da1bdc622bdU, 0x3dedaa76be256cd8U, 0x3c03d6643cbfc62aU,
  0x3e4c32683c6d315fU, 0x3e183b7fbda6dbc6U, 0xbd466cd8bc3644f0U, 0x3e0bdfd0bdfee834U,
  0x3d0a18d83d53b494U, 0xbd99478dbe311e01U, 0x3c633db13d56828fU, 0x3e9a3d08be240576U,
  0x3cfd5b4bbc849785U, 0x3e4b1ae73e3388d0U, 0x3e007cc3bdc5b27fU, 0xbdecf2cf3d2f0d32U,
  0x3d7fb8c33e5c6906U, 0xbdeaff84be5f905fU, 0x3e57777fbf009a78U, 0xbcc9d6193d816c12U,
  0x3f060a65bef3e241U, 0x3e4ae3f6bd6e8165U, 0x3e2f9fb83dd3d09fU, 0xbc92f2ef3c259d60U,
  0xbe894fe2bd1a00d6U, 0x3e665ff83e3e9783U, 0xbd964445bda0891aU, 0xbdff9c04bbb25895U,
  0x3d27badebab41429U, 0xbd246cdb3dfbb469U, 0x3d6001f63e314837U, 0xbdcb50a0bebfa8d4U,
  0x3d29a9523e01aaeeU, 0x3e6a9c293d27f41dU, 0x3d8918fcbe91ff88U, 0x3e610cd93dd743c5U,
  0xbe0db31cbc494670U, 0x3e568900bcda692eU, 0x3be08be23d63ff45U, 0x3dbafd81b9a6b5f0U,
  0x3df0e394bc48d4b7U, 0x3e1a02723e606320U, 0xbdc975753f49c5c6U, 0xbea95440bf172cb1U,
  0x3f32d4363f17d3bcU, 0xbecec7f5be511ed9U, 0xbeb641b7be7d000eU, 0xbdd40cdc3ebb6f98U,
  0x3e6661b7beddedc2U, 0xbd91b1773e3f41f2U, 0xbdde773f3e0ae0cbU, 0x3ed351ebbeefd7d2U,
  0x3e7187f4be23ed6cU, 0xbcf9d20c3d8025f2U, 0xbdaf2b403d3e8277U, 0x3d940a78be5b9ef9U,
  0x3e29d9ae3db95754U, 0xbe00db6d3d21bdcfU, 0xbd72ad843e8a2ed0U, 0x3d164f2c3c29e2a8U,
  0x3c891349bda4fab1U, 0xbe91520dbe6d3a77U, 0x3db9fe0c3e37c1c3U, 0xbe38b64f3d61ab5fU,
  0xbdfc8e5a3e18047aU, 0x3e6f742b3d254b15U, 0xbceb102a3d298b98U, 0x3d3eaca73d7b9374U,
  0xbe2ed86bbc213790U, 0xbe56d59cbe0e5738U, 0xbe19f0fbbe5a3089U, 0xbed2b12fbdc716f4U,
  0x3eae7070bee72cfdU, 0x3e17e3bc3e8f8e3bU, 0xbeb69d28bdd18accU, 0x3ddceed8bdc5f456U,
  0xbf5a089bbf089ff9U, 0x3e01a25d3daf923fU, 0x3d0946f7bdf667aaU, 0xbd7b03b23e60e161U,
  0xbde35abfbeab0a5dU, 0xbe901002bd4153d4U, 0x3d935068bc422f4aU, 0xbd8c3763bc426d23U,
  0xbd8919f6be3383eaU, 0x3d0109c4bdb9e8b0U, 0x3ce28b3d3e0da4b1U, 0xbe581e443e932e50U,
  0x3e5233fb3c862fa1U, 0xbd5fb3163e1cf925U, 0x3d91407cbe921b96U, 0xba3e84bebdb47056U,
  0x3d2b9088bd803be1U, 0xbda222a03cb25b08U, 0x3ca006aebe5a90d7U, 0xbda899bb3de9edc1U,
  0x3d783c0e3e3f7724U, 0x3e91c8523e3f5865U, 0xbed6058c3f9ec6b5U, 0xbd1bdd16bd8996f9U,
  0x3f80a4c33edb55f2U, 0x3e3cb26dbe85ea08U, 0x3f40d9623eb8d7c3U, 0x3e1757533e6b1396U,
  0x3d943a5e3e5e6906U, 0x3da68893bdda7698U, 0x3df482af3eb38efcU, 0xbd7414e2be660ab3U,
  0x3e39740c3e19cc1fU, 0xbe4cb76bbd788394U, 0x3e51b5443d0690ebU, 0xbec2a1cd3e89d371U,
  0xbd0fc070bdac8288U, 0x3ea330723e375d58U, 0xbd402324bca9eda1U, 0x3eaa579a3e3a98cdU,
  0xbe7ce6113c3d382cU, 0x3e1457f63c5bb749U, 0x3d18d8123d68775fU, 0x3e4bf6513dadb715U,
  0x3e287e7ebcef08ffU, 0x3d9aedf7bd111f52U, 0x3e6f18613e8185efU, 0x3bd50d29bd9b2cb5U,
  0xbd8e0bb8bddd5768U, 0xbe04cbb23cc2a0f9U, 0x3e2ed4d5bdc3e5a2U, 0xbe3d743a3d8ecbe0U,
  0xbd5d5375be0fbb04U, 0x3db9ea47bdf304b2U, 0x3e193fd3be6944e2U, 0x3eb8324fbe6cada7U,
  0x3d0cff4cbe50c082U, 0xbe4f8a04be0aeae3U, 0x3e074a6fbd7247ffU, 0x3ce4b5f1bd73950dU,
  0xbe71137dbb8904d6U, 0x3da80717bd8d86a4U, 0xbc438194bd226dbcU, 0xbd70b4d53e87c6fdU,
  0x3d7b8dc33df759b5U, 0x3e21bb663d303c09U, 0xbdbe66df3d9a8318U, 0x3e2a1caa3efc6355U,
  0xbee4f1e33d8be23dU, 0x3ea080c63e5251e8U, 0xbc19dd2abed78e5dU, 0x3dc142b53d825c2fU,
  0xbea957033e7e67adU, 0x3df741943c8caba2U, 0x3f3258ddbe1147a6U, 0x3d887623bdbe8671U,
  0xbdb65ed23e53c577U, 0x3cd59c603db01712U, 0x3e5f15a13de97037U, 0xbeaef4a93d73b117U,
  0xbe9be8cdbef28020U, 0x3eff44063d5644ddU, 0xbe4226623db415fdU, 0xbd9468793e201819U,
  0xbe7758643e6ffd92U, 0xbd4659bf3e6110ebU, 0x3d45d25d3da3e48fU, 0xbe959ae9bbc3ef9dU,
  0xbdd81b9bbe05bebdU, 0xbb9db2ff3e95be9dU, 0x3ca6b47c3cc956c0U, 0x3e685e5e3ec4665bU,
  0xbe85dbe0becbd4c6U, 0xbb571183bd96e712U, 0xbe3dd2b63ddb6a07U, 0x3ebc7bb23d9db8cdU,
  0x3e9334293e1f279fU, 0x3e6771143d0c0a65U, 0x3dff35c4bea8eb86U, 0xbe999089bd6bc7a3U,
  0x3f2254e7bea3fdf5U, 0x3dcbbd643d49bff0U, 0xbe25a7333d69f97eU, 0xbd6c20ccbd197045U,
  0xbebf9b93bd53d794U, 0xbda6a6fe3eae348cU, 0xbce826debd47a842U, 0x3e6dbab63eb886fbU,
  0xbbe0cbec3e3d6100U, 0x3e13ecad3db4c50dU, 0xbe8a6db7be41d5f0U, 0xbd3f4c213d00534bU,
  0x3cf6f0a3bd1962d4U, 0x3ebc778dbe053603U, 0xbda38ce53dcf58ddU, 0x3dacbae1be67cc6aU,
  0xbbba2f09bd0dbe0cU, 0xbda8f6fa3e049db3U, 0x3e2f3e863d8d8ce9U, 0x3e63aed43d3b78baU,
  0x3e449374bd834a89U, 0x3ccf229c3db20861U, 0xbe421fc23ebf130eU, 0xbecbac86bf296e40U,
  0x3ead53993ec8924aU, 0xbc00f16fbde99d53U, 0xbe8e03f83e4d5c1bU, 0x3e0d20953e6b5470U,
  0xbd6e256bbda10032U, 0x3d9c647a3e82454aU, 0x3dd5e7f3bcf16898U, 0x3e2ffdc0be999c9aU,
  0x3eac37223e309869U, 0xbdca54dbbc0483a8U, 0x3ca993833de71d21U, 0x3d7781c3bec80f52U,
  0xbd56704fbea07e8fU, 0xbda291e9bedd5f26U, 0x3e2876d93db66775U, 0x3ef041fbbd1458aeU,
  0x3e4159c93db51c1fU, 0xbd4ae4ac3e113ba6U, 0xbda5940b3dfcba59U, 0xbd3548ecbd007f19U,
  0xbe108c0abe339301U, 0x3e110e043d4cf12cU, 0xbddc8e0b3cb40a87U, 0x3e73dbccbde9bb97U,
  0xbdb59db33d9b90a9U, 0x3ded80ee3df34413U, 0xbd4b9601bd81677cU, 0x3d06af623e67359dU,
  0xbcd8a2a13e749c73U, 0x3d24d400be8da894U, 0x3f09f79fbd01257bU, 0x3e36cd76bd0f24d9U,
  0x3f40302ebd51e224U, 0xbe36cd5b3bd4526dU, 0x3e52ae48be9b8d87U, 0xbbb1ae0b3d0bb776U,
  0x3e837e8bbd2db6b5U, 0xbd82cc5ebe7cf5e9U, 0x3ef2d09f3dcabce7U, 0xbc342dbe3d7fc882U,
  0x3d656624be435e64U, 0x3dfd59083ef2e374U, 0xbede762abeea2fa1U, 0x3e9a01153c943ba6U,
  0xbe9f60e5bef8ef4eU, 0x3f50b905bdb7028fU, 0x3ec74f23bdb2a9beU, 0x3ea21a203f1085e6U,
  0xbe832416be86c34bU, 0x3f88b03a3db08661U, 0x3db0abe0be92ecceU, 0x3eac740a3ed73d87U,
  0xbe9982fd3d78d94eU, 0x3e5933fbbe08effbU, 0x3d89a1d63d7fedbaU, 0x3dc732583d3162b5U,
  0xbe206e81be944b07U, 0x3d906117bdb3a09fU, 0xbe46627fbe686168U, 0x3dcddf043e66f0ffU,
  0x3cf504783ceb4673U, 0x3e0ac44abe8872bcU, 0xbba6076dbe2fb081U, 0x3d6fc26f3dc63e38U,
  0x3d384793bd9d7ac3U, 0x3e8f1f94be262f6bU, 0x3e7371edbc8827acU, 0x3e5b0f0dbd988c69U,
  0x3d952d1fbe12ca02U, 0xbe9b491b3de41116U, 0xbe7c18fb3e86cdc2U, 0xbe6fbd043d28c6ffU,
  0x3db02a933e1cef4cU, 0x3ea3cefc3e2afdfaU, 0x3d472844be5f2359U, 0xbc96f78a3e3a3ab4U,
  0xbdd1ca9abdda013dU, 0x3c7dd23dbcc230dfU, 0x3dc1f7d93e6dc0aaU, 0x3e8a9c333dbbcc04U,
  0xbdb6bb18bd92f35dU, 0x3d89eafb3ae6647dU, 0xbd8e18803e909e3cU, 0xbc9af5acbde8baf3U,
  0xbe0b1438be7a5e0fU, 0xbe8e0bf3bcf9a1b2U, 0x3ebbed59bd9f2f0fU, 0xbd62a2be3dcc43b2U,
  0x3de9e81dbdf7da59U, 0x3e23080c3e449ee6U, 0xbe3004ec3cca03abU, 0x3dab7b513eb6ca8aU,
  0xbe1ef6bfbe0c6e8bU, 0xbe775504bdefaee6U, 0xbd6119a13e4faafcU, 0xbd1803ec3e4f3376U,
  0x3df6da173dfbcd81U, 0xbe72c396be673434U, 0xbdbff4463da2efcbU, 0x3c0726303dc569aeU,
  0x3d8c69e1bdcd5730U, 0xbdcfc2103e18cd56U, 0xbeadd1e93e6f4b2aU, 0xbedd22b5be644f8fU,
  0x3edeadd73cc1710cU, 0x3e49157b3d5e0b0eU, 0xbe30b9ff3db1d1faU, 0xbddad6a23e7fe207U,
  0x3b453396be577c7bU, 0xbe17ced0bda631d1U, 0x3eb93c2e3d416606U, 0xbdb61e2a3e0f8d3dU,
  0xbde6bf1c3d7b394cU, 0x3e0b4471bd924c5aU, 0x3f12ce69be11588eU, 0x3e8030b23d027022U,
  0x3f5db0123cc0394cU, 0xbede88973f322df2U, 0xbe9f1db2bed1a4a3U, 0xbf6f8e373ec092f1U,
  0xbe2d3c683dc7d615U, 0x3e8f3c603cf908a6U, 0xbdd9dd793c09f903U, 0xbdc72d76be8d8ff6U,
  0xbdcbd5133ebaec6cU, 0xbebda3ea3e20e2baU, 0xbc111a8dbebaae16U, 0x3cd40fc9be1b3c9fU,
  0xbeb32a9d3d1cf854U, 0xbd0890513e4f3e43U, 0x3d853baa3dddefb0U, 0x3d5422523e22fe9bU,
  0xbedab9763ed8eb67U, 0xbe4769fdbd4206ceU, 0x3ec66b2bbe611f32U, 0xbeb93078be0ef7ecU,
  0x3f0943cbbdadc184U, 0xbd6448e43ec90c66U, 0xbe1c4712be6cd132U, 0x3ce885833f0d874dU,
  0x3eae1f97bf13db4fU, 0x3c6879a83c44a623U, 0xbd11d6fc3e30a808U, 0x3b61790b3e3ca5d4U,
  0xbe18e2e73ea62e1bU, 0x3d6a99293ba3733eU, 0x3dd3af583d97d894U, 0x3e954f6f3c50768dU,
  0xbea0f4e43dbb08c3U, 0x3ea4f4a3bd35bda3U, 0x3d3e6e26bda98d17U, 0x3ec2a198bdd60663U,
  0xbe61e664bd48c7dbU, 0x3d77dbc5bd5b8663U, 0xbb31de043e233331U, 0xbeaec4573d85bd55U,
  0x3e9f4932bdb3cbbcU, 0x3e90e4a5bd967ac6U, 0x3cb549f93dc7b5e2U, 0x3daa2d94bd8a4b2fU,
  0xbed0469f3e3b477eU, 0x3c7295ed3db93847U, 0x3f4486bf3f1e1606U, 0x3dd5b6153b8c4290U,
  0xbe838adfbdf1bd9eU, 0x3db99d3ebda71859U, 0x3e234df03e12a826U, 0x3e206473bda62bc8U,
  0x3e3aaf8dbe1e28c6U, 0x3eb0fc02bef8c766U, 0xbe4ae3c93e121aa9U, 0xbe0130923e845722U,
  0xbd7febaabdb0a3bcU, 0x3e6a1112be486988U, 0xbe26fb4abe444d90U, 0x3eb7c128bded19b4U,
  0x3dffc722be70ba40U, 0xbd537567bcb985f8U, 0xbda6ddfebe58810fU, 0xbd870f1abdf98ea2U,
  0x3e784e503c6b30c7U, 0xbd52d88ebe5973e1U, 0xbd87d6afbe5852a6U, 0x3d9b0d223dcf591bU,
  0x3e64c2b33cbce8bfU, 0x3d8acf3bbe008493U, 0x3c1026e2bd540b63U, 0xbd3d74ffbcc6ea8cU,
  0x3db7068e3c655564U, 0xbd1d50c53d22ece2U, 0x3cab646b3d04c8b3U, 0xbd6d00b03d1f4afeU,
  0xbc08a6d83d335c1bU, 0x3e608d86be0e580bU, 0x3cb27a523e0e3f13U, 0x3d59bd123e4a35a9U,
  0xbd8ead9fbd12c6c0U, 0xbe29d00539b86b99U, 0xbd49e5babd56d44bU, 0xbdb832c4bcc4f22fU,
  0xbd84ef263d79d275U, 0x3d1860b83c57eeb7U, 0xbd87ea193c8d9659U, 0x3d0d92633cd10a2bU,
  0xbdab1139bc489917U, 0xbd8b1f0e3c89c3a0U, 0x3fd0456dbe9af89cU, 0xbf31426abf1f734aU,
  0xbe9030323e50980dU, 0xbe8f96bd3fbe4408U, 0xbe673550be0b6a1fU, 0x3f6b380cbe85ecb1U,
  0xbe4df507be4bc60bU, 0x3ecb6296bebce7cbU, 0x3d291c4ebd809c1cU, 0xbec7abde3e58ab23U,
  0xbdb873ef3e3decb5U, 0xbe7d20ac3e06691eU, 0x3da275153e13b6ffU, 0xbca9a2e93d5dd012U,
  0xbd7498b23d30f631U, 0x3db36824bd0ea8bdU, 0xbdc99ac7be02a753U, 0x3d19f02e3e6795f8U,
  0xbd346d453d4bea48U, 0xbe37309b3d4e8561U, 0xbdb649643d9a9dcaU, 0xbd38b81ebd86ef59U,
  0x3e0205debc6c659eU, 0xbdbeaef0bc5497ffU, 0x3c981003bdeaf590U, 0x3e0324d8bdf58126U,
  0x3e59422d3daa1ca2U, 0xbdc20b05be39b9eaU, 0x3e2278263c9ae1ceU, 0xbd53e5c3bdf52519U,
  0x3d10e9b53da5d2b6U, 0xbd0a8107bddccd6fU, 0xbe4ebf8e3ddcfe5bU, 0x3dc44e73bd309ff8U,
  0x3e67f7683d99e43bU, 0x3e34e442bcef6bbfU, 0x3e51e3efbce73465U, 0x3e7057f23e3ff73eU,
  0xbbb05d6d3cb8cc02U, 0xbdadd0f13e709db8U, 0x3d75b3b03d0e71afU, 0x3d46c47f3e24b3f5U,
  0xbcbb2000bdb5f266U, 0x3ea08c5c3e4e3d4dU, 0x3cc6e4f1be168deeU, 0xbdb5e6263dee7a6dU,
  0xbe3809c5be3818daU, 0x3dc3c8fa3de50620U, 0x3dbce12e3df565baU, 0x3e8b8c073e8d0b71U,
  0xbd282a4ebe69e421U, 0x3ebb4aea3ecd9e58U, 0xbe87a7363ddb25e0U, 0xbc910f833e8fe19dU,
  0x3e0ae2aebd63e5fcU, 0x3e959f72bea50749U, 0xbce05281bd5381fdU, 0xbcd7add3bd7b7ceeU,
  0xbe79760f3e8fb41fU, 0xbe3c5792be20fcceU, 0xbea53c483f02dd5fU, 0x3dbb2bd0bebc0220U,
  0x3c66b3053f002583U, 0x3e50d8fbbe5b9c61U, 0x3e0758d13e9faefcU, 0x3ce7fd6d3e047d23U,
  0x3e142d743e756481U, 0x3d97b2893ea7f062U, 0x3e8a60423d8acbd0U, 0x3f4d320b3dc350d6U,
  0xbdbc52babe8e16ceU, 0xbeb76e49be0e16f4U, 0xbda5b1e6bdac3078U, 0x3c26976d3e24ab5dU,
  0xbed021bb3eb0944cU, 0xbe74a1e93e534cb2U, 0xbc81e0b13de1cc91U, 0xbe15e7eb3d23e4fdU,
  0xbb776ba13e3d0db9U, 0xbe303a11bd7e6bfeU, 0xbdbf68e0beb7fca1U, 0xbe977b59bd8408d5U,
  0x3ebcdf81bede5521U, 0x3e29eac03dd9f770U, 0x3d84fc493d6c9393U, 0xbe3bfe293e269015U,
  0xbd880ddb3d69fe10U, 0x3e519c42bec7ee57U, 0xbc9bdf813ea3ee93U, 0x3d05132cbe45d122U,
  0x3d3b73d1bd825a2fU, 0xbe1f2ad23ded2431U, 0xbdeb532abe18b8fdU, 0xbdd0db7dbe3a0282U,
  0xbb0a6a82be496443U, 0x3e954ea53d08f1bcU, 0x3d218dcdbcc18eb3U, 0xbd77d8a2bd494543U,
  0xbe717aa03ec704caU, 0xbde059c43e5c0ff1U, 0xbed9cf9a3e965850U, 0xbe9c70023e401986U,
  0xbe9501fe3d1aaf9cU, 0xbe1c9ba93e4593b7U, 0xbdfb3db43ca84cb1U, 0x3e2d3bfa3e911486U,
  0xbe94864b3efddfdcU, 0x3c89853ebd931c48U, 0x3d96b7be3f587a12U, 0xbe229ba4be4cd8f3U,
  0x3f6d242cbcba8e19U, 0xbe39a4f3be530693U, 0x3f1345ebbe6ee0bcU, 0x3e41703ebeb46514U,
  0x3ee20dd43dddb79fU, 0xbdac9ee0bed16e32U, 0x3dde7d8abea04021U, 0x3e25bb96be08eee4U,
  0xbe50fa5f3e4b299cU, 0x3c84b8e53de26325U, 0x3e14fbcc3d04c1bbU, 0xbe1622a5bd46a093U,
  0xbe16a1d53e24ac97U, 0x3c2f8f1dbcb88a39U, 0xbe005086be20fe6aU, 0xbcc27e993dc2e0aaU,
  0xbd8a80943deceb8bU, 0x3c51bcadbd82674cU, 0xbc4408ee3e400850U, 0xbebdaee4be0adef5U,
  0x3d90605d3d951e67U, 0xbe7258dd3cb06e2bU, 0x3d2c075fbe8a8e0bU, 0xbd2ea6abbdc6439fU,
  0x3e933e74bef192baU, 0xbc317b4e3e6f07caU, 0x3e17fbddbcadccbdU, 0x3e2b1b96bd556adfU,
  0xbed94b60bda6ca10U, 0xbe68b12c3e621a2fU, 0xbd894427bec6fd9dU, 0xbe611b9abe910378U,
  0xbe88a268be10f08eU, 0xbdb2204abde6aa62U, 0x3eb143d03d82fc66U, 0x3d926bcdbd5d43c9U,
  0x3e121f86bd928230U, 0x3cbbe8f8bda7141dU, 0xbe773cbdbdc96146U, 0x3e774d543d3d7d55U,
  0xbe212268bedd03fbU, 0x3ea3ab4e3e755591U, 0x3eae55323d114d32U, 0x3eb10aa93e9ed31fU,
  0x3cf9610ebdcb45d0U, 0x3f190e8c3d931b32U, 0xbd0e61a4bbb76d7aU, 0x3ea832bcbdea5ecfU,
  0x3d3deae63cfccd61U, 0x3bcab7593d8dafd0U, 0xbda21169be5aacfbU, 0x3e7048fe3e473707U,
  0x3ed81cb03e9c410dU, 0xbd11a8923de354f0U, 0xbea45405be872bebU, 0xbd2ffb38bede1522U,
  0x3e8d13123d36ed89U, 0x3e72ea253e446f24U, 0x3bae1d853e0406cfU, 0x3e455cb7be5f7ea8U,
  0xbe6f3d323d7895c6U, 0x3d9caa533ec553d0U, 0x3e11108a3e849171U, 0x3f87e613bd9fcad8U,
  0xbd34ff3bbb15d73bU, 0x3e3c6bfa3d309ac5U, 0xbe632566be9e3046U, 0x3e13e4ffbe22c351U,
  0xbd9f9b0dbdc5753fU, 0x3e8db49e3d813ac0U, 0xbf01bfc6bea22554U, 0x3dacd1063d41e8c8U,
  0xbdc4aeb1bdcc512bU, 0x3e51c93fbe21ae5bU, 0x3de065c5bd2eba78U, 0x3e18c941be63c7f7U,
  0x3e04ecf43effaa12U, 0xbe986ca9be809ec6U, 0x3ed04b13be16921fU, 0xbdd04468beb2e82aU,
  0x3f1df2113ec8ebd2U, 0x3f06eace3d312510U, 0x3e80e67ebd8779cbU, 0x3e972ebfbc9622f3U,
  0x3f8af7ef3ebb431fU, 0xbba539e43df359f7U, 0x3e2268bc3dc23717U, 0xbd8b625f3e84d977U,
  0xbdefd4213d6fec0dU, 0xbe2bba7f3e13f010U, 0x3d0938f63dfc0aa7U, 0xbe1e3d323dad185bU,
  0x3dc095313e99251bU, 0xbdf2726dbe83bd14U, 0x3d65834bbd774916U, 0xbd2fc97dbd525ad3U,
  0x3e8c2e26bea0c7f2U, 0xbdec455cbeb71523U, 0x3e8ac80bbda3e16dU, 0x3c87975e3dbe4001U,
  0x3d52bd70be00639bU, 0x3e797e0c3de9cf56U, 0x3dac6967beb18443U, 0x3e38f908be47a20fU,
  0xbd846d443db3a7cbU, 0xbde62ad3be9efaa0U, 0x3e8343643edc704eU, 0xbe030cd63e6a6b27U,
  0x3e35988e3c04c74bU, 0x3dbd36373d5186e0U, 0xbd89758f3e45a93fU, 0x3d9ebbc13e105f38U,
  0x3e8d3936bca7ce93U, 0x3ded9fb4beb78c61U, 0xbda3946bbe40f95eU, 0x3db5624ebd4e8abeU,
  0x3e521ae9bcab8faeU, 0xbd60cfd5bd6b3bd9U, 0xbe44a397be75d303U, 0xbe5040043e173c6dU,
  0xbd8611403e2b0378U, 0xbd3b430bbcbd072dU, 0x3e8d7396be9b648bU, 0x3e49ceb03e8b75fcU,
  0xbcdee440bd3669afU, 0x3dd6b031bc0ec369U, 0x3ba8d5013ebdd4afU, 0x3ebafdc8bdd9ee9bU,
  0xbda0742fbd9221f9U, 0xbda599133bb5968fU, 0xbddce6103e8cba2bU, 0xbe0c20333dab9990U,
  0xbe23ac583f209b38U, 0x3ce3d49bbd8f5fb5U, 0xbf23519a3eee6583U, 0x3e0178d93d9e0e8dU,
  0xbf336f9e3f403975U, 0x3e2d95bcbde93efeU, 0xbc83a087bd2d32e7U, 0x3daee1063e36626eU,
  0xbd9ac37e3dece4a9U, 0xbc7778b4bcbf7b18U, 0xbd33b63a3e7495beU, 0x3e41a2e2bdb4586cU,
  0xbd76bd443dc5e6f8U, 0x3e7a3543bd9ba2beU, 0xbe9f54c43dd989e0U, 0x3e2cf57d3e434569U,
  0xbd0a6089bdf975fdU, 0xbd4479a7be1e4e74U, 0xbdc6e25ebe9e6acbU, 0x3e39bafb3ebcddaaU,
  0xbee61ac6be9f9101U, 0x3b4b41623e0d0130U, 0x3ecadb5f3cc0a0daU, 0x3bf0dbd1be202d1cU,
  0xbcef3d173e2e093dU, 0x3e4621853c4719b7U, 0x3f1035763e8c42b9U, 0xbd5b1bce3e133fbfU,
  0xbe96642fbdd20981U, 0x3ee7d0f1be4547a4U, 0x3e4417753df2b6cbU, 0x3eab7ad93deea421U,
  0xbdca85193e83f4b8U, 0xbdbc55b83e02b11aU, 0x3df314763e95d7f3U, 0xbdff8590bd11895aU,
  0xbe2238c9bdf621e8U, 0x3d31ce87be04df44U, 0x3ee4c4eabea68b5fU, 0xbd7ca9f9bd3be1d2U,
  0xbe543369bdc18586U, 0xbddc315abd509256U, 0x3f02b819be20d761U, 0x3e11fb123e37754eU,
  0xbea2cc833c98bd86U, 0x3ea5a451be86aa06U, 0xbe73424ebb1d1cc3U, 0xbe26ed63bd97caaaU,
  0xbe71e3843e3506deU, 0x3def3fe6bcf9962eU, 0x3f0203303e1277f8U, 0x3d1563893e04782eU,
  0x3e9731523e31f207U, 0xbdc458753e3f76d8U, 0x3cfc9bd33e1d0145U, 0xbdc05d023ef448d4U,
  0xbc72b272be8e7ce7U, 0xbde82aafbbd41438U, 0xbe619072bdf11919U, 0xbe2bbaac3ebb4dcaU,
  0x3e0dfc563de8840bU, 0x3e7c78c13e8ff8f2U, 0x3e4d219f3da7d2beU, 0x3e7f9f3b3ddfd310U,
  0xbd3d96c4bd86fc7bU, 0x3d24b04b3ee14ce8U, 0x3ebfa3bd3dd553e3U, 0xbd2b15493ecff2b8U,
  0x3eebeabebdf4ca61U, 0x3bae54e53e007ae8U, 0x3c990b43bd7c4c70U, 0x3e92a7683edd6f13U,
  0xbdee3964bc5c0a66U, 0x3db4070bbe55a825U, 0x3e9beb2fbdfa8cc5U, 0xbeaf201ebe9c2dc6U,
  0x3cf278c23d4af889U, 0xbcd4ac84bdb437d0U, 0x3daabf4bbdb39fa2U, 0x3e34a38fbd4cbaceU,
  0xbd1c053e3b6279e0U, 0xbdb02e3a3dc16832U, 0xbe1d531abe541fb9U, 0xbbaba5b93dfa1a89U,
  0x3d36b8ff3d4449a9U, 0xbe3835833d128863U, 0xbd08fd49be212120U, 0x3dba861f3e082534U,
  0xbe2ec94c3e778c25U, 0x3e2d98ac3e9c0993U, 0x3d4acc823e4343f8U, 0x3f092fc33eabf1e2U,
  0x3e9de6c53dcda6afU, 0xbdfd79533e0507a6U, 0xbcc7c2613d8144d8U, 0x3e1604fe3c692976U,
  0x3c308c73beb6f567U, 0x3e1d6bcabe075cd6U, 0xbe46ced83c8c5636U, 0x3ce5adfd3e29c520U,
  0xbe5f54ec3f3424f4U, 0xbedcd36bbecfaf18U, 0x3d93740dbe0f748dU, 0xbe739534bedc24aeU,
  0x3f17354cbdca7488U, 0xbaf4fd0c3e205e59U, 0x3eb520883e13bc6eU, 0xbe27fb213ddf1addU,
  0x3f8a874a3ea6db0dU, 0x3daedfbf3dd055f7U, 0x3d49e59d3e688a01U, 0x3da908b33db9fbd9U,
  0x3cd3b70f3c93ef65U, 0xbdb204b5bbf3d9bdU, 0xbdfa06e9bdc4803bU, 0xbe55b1d5bdaad15bU,
  0x3e2ae325bda7a8b4U, 0xbe39e9d83e314e99U, 0x3d82c14b3e31276bU, 0x3e031a63bdb96799U,
  0xbcecad79be18988aU, 0xbe3827673e5de93fU, 0xbe18c6183d7bd872U, 0xbe385a743e3ff1e0U,
  0x3d83296dbe7cff89U, 0x3d9fcaa43d098113U, 0x3e2a9ccd3c999d79U, 0x3c7147633d76513fU,
  0xbf486e56bd5a62c0U, 0xbe70d8a43e3c43c7U, 0xbe96df3e3eb23a35U, 0x3e80d8313e4a6a0bU,
  0x3e2e23a9bd883cdfU, 0xbdf210093dd60f41U, 0x3dd88e9e3de5f1bcU, 0x3d29e31c3d2e8503U,
  0x3e8b5ebebc564be9U, 0x3d3854cbbeb38b59U, 0x3d5b3e333d869860U, 0x3d35e60d3e433f43U,
  0x3d6ca36bbd25d391U, 0x3d64d90cbdcadaabU, 0xbd9a69223e1dabadU, 0xbd14e1323db3e8b8U,
  0xbd8cb4c4bd0bfcc9U, 0xbe6fb4623dce8e40U, 0x3dd063bb3ccd737aU, 0xbc6a4f183e2a94f3U,
  0xbe0368b43d6bde8dU, 0xbb45ab4b3be9c146U, 0xbdd8a6c5beb3f0a1U, 0x3c50b5a03d2ab3c0U,
  0x3d885f103bb713bdU, 0xbe38e05ebeca1756U, 0x3d3a89b5be20608cU, 0xbcca7982be1203d6U,
  0xbd75bfcdbec09fe9U, 0xbde85f4cbd657599U, 0x3e4a2fd03dce6ea1U, 0x3ecdf8c3bd95532eU,
  0x3d417c813e351e71U, 0x3e842fc3be568b36U, 0xbe1505a3be1ac395U, 0xbd80f447be05f33eU,
  0x3cdf1d45bc655111U, 0x3d405dde3bffa429U, 0xbdcb188cbcf29e79U, 0xbed10518be43543aU,
  0x3d60ae9abe7e9c5cU, 0xbd8f8276bd53c1f8U, 0xbded1ad53d35bebcU, 0xbcafff033d2f7a80U,
  0xbd20097d3d57a8ffU, 0xbc9168053dbcae45U, 0x3e87e0e73e421663U, 0x3e7b35acbe626392U,
  0x3e94d8593e80e28fU, 0xbdf1ca60bd55078cU, 0xbea1dfeabe7da24aU, 0x3ef201fe3e1aa31dU,
  0xbefb5d2dbe001d8eU, 0xbd0ba29f3c2f8b99U, 0xbeaaa9b6be8739b6U, 0xbd369f92bdb7e730U,
  0x3cf5c937bea499c7U, 0xbbb9e1453cccec67U, 0xbcf8c2c5be35a9e0U, 0xbe330b01be590ed2U,
  0x3e1eef8abcf386e6U, 0x3e86a223bf1aac00U, 0x3daae6243e5e7d40U, 0x3f5b8eee3e9c9453U,
  0xbdfb91eb3d7296a8U, 0xbc0f7fb3be13f24aU, 0xbd17e8e9be0ff6b9U, 0x3c224002bc28c838U,
  0x3d353709bd6c9b70U, 0x3c745f493e0962eeU, 0xbd9d34fd3d9572c2U, 0x3c08a6e43e3b3cc3U,
  0xbc742f1e3b8abe30U, 0xbdd6cef33d5d09c5U, 0x3e73907bbe81873eU, 0xbe9913603cb39464U,
  0x3e6b40c2bebf2ad0U, 0xbae60d9b3e5471dfU, 0xbebca1923e7d78a4U, 0x3d65099c3d86a79aU,
  0xbf296b02bde5f3ebU, 0xbd2dce7cbd01d084U, 0xbe7f7bddbd764aa9U, 0xbe49a5fc3c1d36c8U,
  0x3daca3cb3d9832d9U, 0xbe25d97e3ccb9761U, 0x3dff56353d3a02d1U, 0x3e23ba88be3a17bdU,
  0x3d7fad163dc96cf6U, 0x3e3b6405bda1f24dU, 0xbdfa97913c7ee374U, 0xbdf727bb3cf99947U,
  0x3dc801543df7df2fU, 0xbd87e87fbd947136U, 0x3e044603bc5f2d0eU, 0xbe7a2fc23d00b4fbU,
  0xbe13c38c3cc9c546U, 0x3e089a5b3e0878f2U, 0xbf485ce93f67a6d5U, 0xbd1646d6bf06e688U,
  0x3f185270bc23f313U, 0xbe069d9cbf183367U, 0xbd407b803eb66bebU, 0xbf0ca94f3ed24bffU,
  0x3e34b6c1bd8aa391U, 0xbf47f6cc3e77c44eU, 0xbd195ce53dda19bfU, 0x3ec0bc5cbea60a40U,
  0xbe3286c53eab0627U, 0x3e3376e53e45f494U, 0xb9e6ccc03e8324a9U, 0xbe4acff4bdf5dadaU,
  0x3e6122c53d847805U, 0x3d2816143d43f73bU, 0x3dcb5f233d8d5ff1U, 0x3eafc85b3f04d4edU,
  0xbe54892abe028dacU, 0x3cbae5d0bda7ea35U, 0xbbb5141c3d23a3ecU, 0x3e0714d8be36498dU,
  0x3e1d72d3bd7b5d15U, 0xbdae086d3d8d1eacU, 0x3e4b28c0ba489932U, 0xbb8d43973e266af5U,
  0x3e550f6a3d5c0b34U, 0x3d635bd7be2f096eU, 0x3e8747ad3e0a35b9U, 0xbc3da91d3e07bc1fU,
  0x3da8df1bbe71e530U, 0x3e8a741f3d99955bU, 0xbe18e69abebd07f8U, 0xbe35e25e3c9a9200U,
  0x3e117b293e3ed880U, 0x3db0cfa6bea93860U, 0x3e32473bbe8cbc8aU, 0xbe33d3c3be364cccU,
  0x3eca6e4a3e6b0208U, 0xbd2a71053c1be71fU, 0x3df11687bdfec95aU, 0xbdfd73623dc2e3f1U,
  0x3dd135f8be2df57aU, 0xbe0feb953e29866bU, 0x3d8634833dbfb243U, 0xbddbf7f0bcd4a599U,
  0xbe617e223e4aa8a3U, 0xbcbebb373db8df42U, 0xbee57394bd376ca2U, 0xbe633641bdab59c7U,
  0x3cdc5eb6be3213bbU, 0x3e8717c03de06fdbU, 0x3e1200e0be5d6d1dU, 0xbedea2f33e35320aU,
  0xbe2fc84dbeb3ac0fU, 0xbcd3a2a6be0b5136U, 0x3e9cbcd8bedba798U, 0x3e94bad43e812103U,
  0xbd475bd33ddaaaf5U, 0x3d9141543dca560aU, 0xbde8f1083e4a27c3U, 0xbd88d255be933110U,
  0xbe4a4324bec4524bU, 0xbe0a7699bb1fe5c8U, 0xbed6fa4d3ec52bd0U, 0x3ddace363e302854U,
  0xbf0ae2db3e098888U, 0xbe06b0793e5574d1U, 0x3d5b2df6be64e3afU, 0xbcbf4f38bed4f64cU,
  0xbd5d11643dbe0172U, 0xbdd0f8bc3d5891caU, 0xbd85f2a23db49bcaU, 0xbced38633e14f109U,
  0xbe12c639bd487211U, 0x3e79d0d7bd5468c2U, 0x3e022ac9bdb84769U, 0xbd546e13bc96dc5dU,
  0x3d5b46b9be089a28U, 0xbd82be44be8952b1U, 0x3e1de65abecea3a7U, 0xbdce72263e56734dU,
  0x3e9fe9b63dbf8e53U, 0x3cd8024cbe4246c5U, 0x3c33981abe6b8d23U, 0x3daf0862bd183819U,
  0x3dc11af1bde0c350U, 0xbdcc488a3df5c9b4U, 0x3e4a6e1fbd050dbcU, 0x3d1a7e573d66aed4U,
  0xbd3f869ebd947fddU, 0xbdc06e6fbd154861U, 0x3d63d4d7bd51d010U, 0x3e5eee1dbe1d8112U,
  0x3c5ea6d03e78ba1eU, 0x3e2b5ae7be0e89a9U, 0xbde5c4213dd14049U, 0xbdfd9ac43d430afdU,
  0x3e6a0f73be096fe0U, 0x3e2ffe86beaa3f9fU, 0xbd5d2c0ebdbc0956U, 0x3e5a67ab3ce5c68aU,
  0x3e0787ca3bb791b0U, 0xbd8227a93cac35c5U, 0x3b0de6893f549cafU, 0xbee66931bf2396efU,
  0x3f5ab1eb3da439a7U, 0xbf090ee7be0ad88aU, 0xbe09815dbe547c82U, 0xbe1ab1c43eedb486U,
  0xbe7167e0bef8728cU, 0xbe24c9373e04bba2U, 0xbe07a2e93e7322bfU, 0x3c192df6beeaa752U,
  0x3e4ae4ba3e6cad02U, 0x3eafdb94bef07b06U, 0xbd4159ed3e178147U, 0xbea3025abe85c592U,
  0x3e072d25be7b3313U, 0x3e4b33b7be918f78U, 0x3d90c1533e6ff8f0U, 0xbd2f59ab3ed96463U,
  0x3d8821573d113a17U, 0xbb06a29f3df773f2U, 0xbddfad52bce35c14U, 0xbe491f19be5cc5a7U,
  0x3d8a992fbe0b591cU, 0x3e7c5fe53d0e69f8U, 0x3dfda1c7be9fedddU, 0x3e8175a4bd2f268fU,
  0x3e327b153e1b1645U, 0x3e92e3043d914560U, 0x3cdc20283e4d6e21U, 0x3e6cd2793e2ddeeaU,
  0x3da99d233f3a2795U, 0xbedfb3f1bf013728U, 0x3e2a647ebe5ea6e2U, 0xbd376098bee83eddU,
  0x3f72f7023ea0e45fU, 0x3e1949483e008c2fU, 0x3ec4b2b2bd9d42c6U, 0x3e4a15633d96fcd7U,
  0x3f1a01c83df813a4U, 0x3db7ef703e3c9d2aU, 0x3e2803d3be4fe3cdU, 0x3d92928e3e0e42b0U,
  0x3d6bd178be2b01b0U, 0xbded8d383e6ec75cU, 0x3ccd387fbe90580eU, 0xbeb7b634bdef461cU,
  0x3aa0bcfb3c708c86U, 0x3e053d43bdb0dd74U, 0x3e3ea6663e34b0ffU, 0x3dd6df773e0c6f75U,
  0x3e4ae3313dde4439U, 0x3d14674ebdb42b4cU, 0xbd72631f3dc58a0cU, 0x3f0f6c753e35af98U,
  0xbcbc1d42bd7f99f8U, 0xbddf8dfe3e0d37a3U, 0xbc9919713ec6ca38U, 0x3e2a9c163ddd0d3fU,
  0xbe80c741be9df88bU, 0x3e079b553bac183fU, 0xbe54aecebecff8b8U, 0xbd3d53c1bd96a3b5U,
  0xbe9adf4a3d6eefa4U, 0xbe1f3b58bcbee768U, 0x3d56f2163e7903aeU, 0x3e3a09f03de950c4U,
  0xbeb5241fbdcf1178U, 0x3e0107df3db81519U, 0x3b4084fbbd17f1f4U, 0x3f28b0b9becb079eU,
  0x3d8177d33cb77dedU, 0xbe4304f73ed462abU, 0x3e814d52bdbbf381U, 0xbe2eb8a83ed376d9U,
  0xbe4ea3d6bef24f0cU, 0x3d89a9b8bd815d7dU, 0x3dabb554bc9d9538U, 0x3e2e84043e2cd16fU,
  0xbe3ebb0cbe4a8572U, 0xbcbc3273bdb0c259U, 0x3dcd59c8be20bc5cU, 0xbc91ec663e06dc06U,
  0x3ddb05783db920dfU, 0x3e85a3b6be5776bdU, 0x3d521a3dbd0172d8U, 0xbd93e2983d80bfe4U,
  0x3e363434bdb5f152U, 0x3d4436bfbe917d28U, 0xbe15bb613e3138cdU, 0x3e46a8edbcc42b41U,
  0xbca045893daf3d1fU, 0x3e4d0646bb5ccb6bU, 0x3e187f803d822bf0U, 0xbdb88b08beadf66eU,
  0x3e051e7abddbf897U, 0x3e52f0093e3447b8U, 0xbddd0dff3c7d8e1bU, 0x3cbecd00be124594U,
  0xbcf4f73fbd587d26U, 0xbe098708be45e8b2U, 0xbda113023b5e1264U, 0xbda8e7bc3d40c693U,
  0xbdc23de5bcfc980dU, 0xbe043b27be6a8350U, 0xbe7079d43f2a4c10U, 0x3dbc0d9bbed14eefU,
  0x3eddbb403e9fcf19U, 0xbe75216bbebd80bfU, 0xbe113de3bd98fd75U, 0xbec718ce3ded76e6U,
  0xbd03f090be00ade6U, 0xbe786d1d3d8366e3U, 0xbe0058d8be199176U, 0x3eb44ae93da366a8U,
  0x3faa83473f5e0411U, 0xbeb0ace4bc7e1455U, 0xbe86a6d3bebac61eU, 0xbe2c1eb33dd9d7b4U,
  0x3bad05e0bdb38841U, 0x3dbddd7a3ddefefdU, 0x3e07a064be0614afU, 0x3d7b63b2bd271179U,
  0xbc04737ebe5cd386U, 0xbdc1bfb53de02390U, 0x3e2199d13e46fa0dU, 0x3d59718f3db4aa15U,
  0xbb863ceb3d2e6333U, 0xbd09acc43da8c559U, 0x3de2ab693c952393U, 0xbd26b046bd876facU,
  0xbea020633e507432U, 0xbe7ab31f3ca61ae3U, 0x3d709d2ebf1e53fdU, 0x3e4a6012bdfd4996U,
  0xbeca53cb3cfc6dc7U, 0xbe3db295be97db66U, 0xbf0b63b3bf1497cfU, 0xbd5e426abd1d6d73U,
  0xbd6ef0d9bdddc84bU, 0xbf29f4243db30fe8U, 0xbe614eb7befe9357U, 0xbeaf383d3d103decU,
  0x3eee432cbf2b1b66U, 0xbe4c0b3a3ece1e0aU, 0x3d5e2c86bef2e228U, 0xbdf951993f1792adU,
  0xbc28382cbda27423U, 0xbfbb0eb43e9cffe7U, 0x3e8883333f8da7e9U, 0xbd2da357be668ab7U,
  0x3e1ee86e3e2aca37U, 0x3e635c973e6cc06eU, 0x3ea190b23ee5ddc7U, 0x3f1d3e9dbf0fa018U,
  0x3f30189b3e1286d4U, 0xbed56224bd49a0a0U, 0xc018c101be3829b8U, 0x3ea6470c3d9f3adeU,
  0x3edf737bbdc2118eU, 0xbe0d04bfbf84f3d3U, 0xbea5ac67bef45b5eU, 0x3efe689a3e9b0a98U,
  0x3e2f187dbe067cf8U, 0x3c216416be38e154U, 0xbe22bf0f3da5c54bU, 0xbde7059fbdb153bbU,
  0xbde85cf33e815002U, 0x3e0907513d37928cU, 0x3cd9c7d0bd5f0a18U, 0x3e7272a63e16899fU,
  0x3cfb85833cd727c4U, 0x3e3ae0adbd8feca2U, 0x3e50f5b03d860d79U, 0x3d6bd65e3c8a65c6U,
  0xbe8985a53ef101aeU, 0x3d4a3b293a0cb7adU, 0x3e9a8e2e3e2acdf6U, 0x3e28d3113dae3e38U,
  0xbbfa6d013ce79ee2U, 0x3e35d1163e57b632U, 0x3dbf9d753cc28336U, 0xbc906de53d3e6573U,
  0x3d503674bbcc2918U, 0x3d834920bdaa300cU, 0xbe1fd24e3e8eb282U, 0x3daaa01cbcbcd408U,
  0xbd62e5d53e425aa1U, 0x3dca75c63ef70e2eU, 0x3cdab8dd3e0766f2U, 0xbdd46f9b3e881020U,
  0x3e7c90de3d8d5ff2U, 0xbd5da8c43e750c6dU, 0x3e80d3133be15b5aU, 0x3ed7d8bfbe0a8bceU,
  0xbe3898113e69df2cU, 0xbef30ad2bdc59f1aU, 0xbe41bd553e23dee7U, 0x3c4a8fea3dc489ecU,
  0xbe536074bdfad192U, 0xbe406a5dbd814a90U, 0xbee3df46bf60eed9U, 0xbfe23ae83dcabd8fU,
  0xbf7d2b8cbe4f668bU, 0x3e5acc6a3e57967eU, 0x401859eb3e3acd91U, 0xbe1724653df07385U,
  0xbf8a78a5bacd6f00U, 0x3d775d933e1a1e84U, 0xbfc17ab33e7a04ceU, 0x3f28dc14bdb5f7a3U,
  0x3d88833abeac303fU, 0xbe8c54e5bfb8d279U, 0x3e02cc56be7ec7e9U, 0xbe5665ba3d2953b4U,
  0x3e0f29753d07dcb7U, 0x3e0dd9f7be2bf007U, 0xbd5384d7bc212d60U, 0xbde797693e47bfafU,
  0x3dab36773e82ef7dU, 0x3d3e78303e2dcbfeU, 0xbb3e3877bde8191dU, 0x3d21e9b0bc0c3dafU,
  0x3ca916a23dba5c4bU, 0xbeb3bcd93e0c2035U, 0xbe444b58bdcf28f3U, 0xbd9b2b18bd88ef48U,
  0xbdf25aab3e068594U, 0xbe7bea85bc95a883U, 0xbe97cc113e8e13abU, 0xbe307854be91fb19U,
  0x3c8c179f3c2c7cebU, 0x3bcc82dc3e76ab8eU, 0x3dd24354bea7dfa3U, 0x3e45b8b1be0a7d25U,
  0xbe90986c3e95e575U, 0x3ca1c27ebfb6a5a9U, 0xbd3883193c527ad7U, 0xbc94fcf13e1e36b0U,
  0xbbf9db79bda1e613U, 0xbe9731efbd3b4051U, 0xbbdc45edbc1a0e57U, 0xbe8313c23da5405cU,
  0xbcd1303d3ea0c0a1U, 0xbec66695bdb79630U, 0xbc6c2f053e16d3ceU, 0xbe228256beff8ee7U,
  0x3ead0253bd6b58b8U, 0x3e3efaa5bcace68dU, 0x3e8257f7bf71a382U, 0xbf511aa53ee275b4U,
  0xbf2e0f53bef6f55dU, 0x3f2f3ca53e50e5a3U, 0xbfa592f5bddf46f2U, 0x3ec9f6ed3eb4a8b9U,
  0xbf226a74be027f39U, 0x3e97427b3f3f3cbdU, 0x3e429137be9dbfc6U, 0x3ee6e2ab3ea7dd76U,
  0xbe8692d13f2d7ffcU, 0x3de02b3d3eb4178aU, 0xbecc36b23ea0a6f0U, 0xbe9e47f63e5528ecU,
  0xbd70de98be67d665U, 0x3e2b70863e83d6ffU, 0x3c82867d3e516019U, 0x3ef3c76ebe8a4c8dU,
  0xbe8212b9becd86e1U, 0xbba236d43e102c55U, 0xbcc01986bc9e7f78U, 0x3e02b21abe6cf986U,
  0xbeb695763f00bbdfU, 0xbe8da186be7b96c3U, 0x3ea1d2863e2e816dU, 0xbd59beb93e570c7bU,
  0x3e7ed4313dcfc34aU, 0x3e7eb5e9be0a6085U, 0x3e5f7ab03e4da385U, 0x3d26e7713c8b463dU,
  0x3e5b512a3d5a38caU, 0xbe9673473d4d2ba5U, 0x3c7d6b34bde31931U, 0x3b445b9dbc23fdb4U,
  0xbd09aa9d3dccfb3aU, 0x3c9c8958be16b516U, 0x3db1fc1e3e9169b1U, 0x3e7a6d8bbdd50be6U,
  0x3d8f4035bc800ecbU, 0x3d19a2103dffd161U, 0x3d1df074bde0d92bU, 0xbc8d22b43e6d3f2aU,
  0x3de34736bcc82d5bU, 0x3f2a925f3e1d3d9cU, 0xbc6a8b7e3f3889f6U, 0x3dda25f1be813f89U,
  0xbd997e393e64f8e8U, 0x3dd75d39bb5e69c2U, 0x3cac1aa3bf874387U, 0xbf06732fbebf8297U,
  0xbf98ace7bf985b74U, 0xbe8eecb8be087c7aU, 0x3f398ca6bb8cddc3U, 0x3ee17551be474215U,
  0xbf71f28fbce6eabaU, 0xbebaa0ffbf16f3b8U, 0x3f23fd2bbd604bf8U, 0x3f43fd95be09e4c4U,
  0xbe6e78cabe72bb6eU, 0xbe50d56cbd9ce7d2U, 0xbef2d753bda9e675U, 0x3e0862f5bb37b281U,
  0xbdf5ab44bd813926U, 0xbe87c47bbebbbc3dU, 0xbd948f60b6716ad8U, 0x3f63a18e3dc822b9U,
  0x3e03c776be4a44d7U, 0xbd1da93abe7280e7U, 0x3f209ad43e4190afU, 0x3e4cea32be9bac5dU,
  0x3f287a38bf2f68bdU, 0xbeea76543c6da44eU, 0xbe54b4de3eedddcbU, 0x3ec6a6363de522ecU,
  0x3d0e70e73ca20440U, 0x3d5972ea3d89edb7U, 0x3df9889bbdf9e923U, 0xbe808b1ebec73b07U,
  0xbdbdf7ae3d98d07dU, 0xbd1bdf5abeba52acU, 0x3e4f8ab2bea165b7U, 0xbf0ada92bcf44313U,
  0xbe9800ea3dfc7cacU, 0xbde244d5bbac8d3cU, 0xbe976a213e49a393U, 0xbda0a1d13d89bb73U,
  0xbe50db0abdf09b27U, 0xbe4a5a783c94a5f1U, 0xbe417c8c3ce26686U, 0x3e6bb65cbe658784U,
